<s>	0
<pad>	0
</s>	0
<unk>	0
▁the	-2.7193
s	-3.12575
▁a	-3.83084
▁of	-3.86707
▁in	-3.97477
▁to	-4.04507
▁is	-4.0957
▁and	-4.36613
t	-4.76263
▁was	-4.77948
'	-4.789
▁it	-4.83293
▁he	-4.85124
ed	-4.89749
▁be	-4.93374
▁you	-4.94344
▁for	-4.98581
▁are	-5.02188
ing	-5.04093
n	-5.14027
▁that	-5.1721
▁on	-5.19672
▁with	-5.20348
▁this	-5.27671
▁i	-5.29256
d	-5.29352
▁his	-5.39929
▁as	-5.4009
▁not	-5.47158
ly	-5.4948
y	-5.53844
er	-5.5735
▁can	-5.57648
e	-5.59657
▁from	-5.61655
▁at	-5.61971
▁have	-5.67588
en	-5.73884
▁there	-5.74416
▁also	-5.74803
▁	-5.78583
▁an	-5.79045
▁by	-5.8114
▁has	-5.8836
▁one	-5.88917
al	-5.96556
▁do	-5.98381
▁she	-5.9975
r	-6.06171
▁were	-6.07138
▁we	-6.09636
m	-6.18858
▁time	-6.21557
▁but	-6.22422
▁all	-6.23518
▁they	-6.27823
▁her	-6.31001
a	-6.33187
▁only	-6.3344
▁or	-6.3555
▁no	-6.37293
▁after	-6.37605
▁will	-6.39714
▁what	-6.39728
o	-6.42727
p	-6.44125
es	-6.44476
▁two	-6.45379
▁me	-6.46032
re	-6.48073
c	-6.48079
▁up	-6.48527
▁out	-6.50109
▁so	-6.51722
▁first	-6.51741
▁like	-6.53471
▁had	-6.56486
▁if	-6.57092
▁your	-6.5808
▁more	-6.64127
▁does	-6.64557
l	-6.64767
▁other	-6.65786
▁my	-6.6947
▁into	-6.73458
▁how	-6.75169
▁when	-6.75207
▁new	-6.75357
▁now	-6.77921
▁just	-6.77927
ic	-6.78852
ll	-6.79818
▁about	-6.80162
▁should	-6.80445
▁their	-6.81338
▁over	-6.81911
▁here	-6.82766
in	-6.84089
▁would	-6.84091
▁well	-6.85706
g	-6.85725
▁who	-6.86594
▁get	-6.86772
ion	-6.89071
i	-6.90187
▁don	-6.90187
▁some	-6.90364
▁still	-6.90669
b	-6.91505
▁did	-6.93603
u	-6.94503
le	-6.95048
▁people	-6.95374
▁which	-6.95704
▁him	-6.95808
k	-6.96199
f	-6.96438
▁used	-6.9705
▁many	-6.98285
▁however	-6.99083
▁re	-6.99998
▁go	-7.00095
▁could	-7.00103
▁un	-7.0162
▁then	-7.02262
ation	-7.03
▁again	-7.03658
▁during	-7.03865
▁part	-7.05254
▁most	-7.05309
▁place	-7.07448
or	-7.0903
▁these	-7.10714
▁even	-7.11582
▁work	-7.12522
▁s	-7.13218
el	-7.13725
▁today	-7.13972
▁already	-7.15558
▁three	-7.15558
te	-7.15593
▁way	-7.15848
us	-7.17068
▁always	-7.17269
la	-7.18004
ri	-7.18021
▁same	-7.18708
▁through	-7.1875
▁city	-7.19125
▁name	-7.19135
▁long	-7.2064
▁later	-7.20863
▁german	-7.22119
ve	-7.22495
▁right	-7.22596
▁than	-7.22683
ch	-7.23499
▁year	-7.23587
▁de	-7.23946
▁war	-7.24357
▁back	-7.24634
▁e	-7.25524
▁want	-7.25627
z	-7.26244
▁school	-7.26287
▁world	-7.26918
▁end	-7.27286
▁take	-7.27912
▁years	-7.28877
ck	-7.29933
an	-7.30844
h	-7.3162
li	-7.33164
▁why	-7.33944
cause	-7.34005
▁where	-7.3476
▁old	-7.35066
ra	-7.3671
▁made	-7.37175
▁under	-7.37467
▁too	-7.38371
ers	-7.38428
▁al	-7.38707
▁know	-7.38861
able	-7.39157
ro	-7.3988
▁make	-7.40089
▁water	-7.4018
▁c	-7.40618
ce	-7.40745
▁good	-7.4098
▁look	-7.41286
▁area	-7.41384
ar	-7.41753
▁without	-7.41885
▁every	-7.42421
▁co	-7.43261
▁its	-7.43293
▁please	-7.43829
-	-7.45123
▁off	-7.45262
w	-7.45459
on	-7.45733
▁see	-7.46621
th	-7.46821
▁use	-7.475
▁o	-7.47696
▁any	-7.4785
▁became	-7.47986
ter	-7.48296
▁often	-7.49114
▁last	-7.49138
▁different	-7.50054
▁g	-7.50225
ur	-7.50456
▁day	-7.51175
▁both	-7.51495
▁located	-7.52322
▁four	-7.52628
very	-7.53269
▁car	-7.53517
▁b	-7.54092
▁think	-7.54281
▁before	-7.54918
▁sever	-7.55256
▁let	-7.55582
▁ver	-7.55676
▁them	-7.56599
▁am	-7.56697
▁between	-7.57343
▁second	-7.57679
▁such	-7.58351
ian	-7.58509
it	-7.58815
▁much	-7.5886
de	-7.59202
▁need	-7.60011
▁district	-7.60204
▁own	-7.60769
ne	-7.60986
▁put	-7.6146
x	-7.62075
il	-7.62747
▁family	-7.6302
is	-7.63354
▁side	-7.64968
est	-7.65081
▁another	-7.65917
▁high	-7.66262
▁bo	-7.67066
▁left	-7.68355
▁state	-7.68536
ia	-7.68823
▁lot	-7.68872
se	-7.69297
▁found	-7.69358
▁called	-7.69384
▁important	-7.69592
▁p	-7.69623
▁something	-7.6973
▁children	-7.70291
▁town	-7.70299
ble	-7.71873
ma	-7.72193
▁church	-7.72402
▁our	-7.72808
▁life	-7.7283
▁t	-7.73025
ies	-7.73032
▁down	-7.73407
▁main	-7.73675
lo	-7.73786
▁light	-7.7389
▁small	-7.73892
▁five	-7.74456
ist	-7.75075
▁free	-7.75151
▁hand	-7.76262
▁really	-7.76676
ment	-7.76866
▁being	-7.7714
▁each	-7.77247
▁next	-7.7737
▁point	-7.77775
▁must	-7.78606
▁since	-7.78736
▁took	-7.78839
▁st	-7.78964
▁further	-7.79036
▁around	-7.79337
▁man	-7.79591
▁university	-7.79949
ta	-7.80641
ry	-7.80722
▁building	-7.80764
ity	-7.8111
til	-7.81152
▁addition	-7.81225
▁come	-7.81748
▁cannot	-7.82173
▁won	-7.82889
▁known	-7.82909
▁against	-7.83154
▁possible	-7.83231
▁got	-7.83517
na	-7.85872
ul	-7.85966
▁few	-7.8615
um	-7.86285
▁worked	-7.87043
▁d	-7.87125
▁company	-7.87283
▁due	-7.87391
ting	-7.87563
▁head	-7.87802
▁team	-7.88135
▁son	-7.88224
▁give	-7.88303
▁us	-7.88383
▁never	-7.88626
▁mo	-7.89136
▁national	-7.90005
▁con	-7.90377
ally	-7.90397
ge	-7.90463
▁course	-7.90496
ol	-7.90579
▁music	-7.90869
▁great	-7.90996
▁little	-7.91507
▁mar	-7.92315
▁going	-7.93841
land	-7.94233
▁village	-7.94489
▁ro	-7.94565
▁la	-7.94677
▁station	-7.94769
▁lead	-7.95104
▁home	-7.95168
▁public	-7.95373
▁north	-7.95697
▁film	-7.95772
▁play	-7.95798
▁open	-7.95836
▁belong	-7.95917
ru	-7.95965
▁away	-7.96039
▁v	-7.96309
▁vo	-7.96439
▁k	-7.96498
▁best	-7.96562
▁help	-7.96625
▁short	-7.96775
▁works	-7.96995
▁ten	-7.97523
▁far	-7.97597
▁came	-7.97928
ine	-7.98057
▁li	-7.98083
▁together	-7.98105
▁himself	-7.98289
▁system	-7.98823
refore	-7.9888
most	-7.98914
▁air	-7.9921
▁member	-7.99385
ate	-7.99561
▁everything	-7.99591
ted	-7.99679
ke	-7.9973
▁large	-7.99889
▁south	-8.00113
co	-8.00221
▁germany	-8.00415
man	-8.00745
▁center	-8.0096
me	-8.01265
▁di	-8.01636
▁better	-8.01681
▁among	-8.02054
ary	-8.02103
et	-8.02131
▁find	-8.02308
ive	-8.02599
▁considered	-8.03383
▁group	-8.03573
▁law	-8.03658
▁bad	-8.03683
ut	-8.03938
▁usual	-8.04586
▁form	-8.04719
ti	-8.04738
go	-8.04861
▁le	-8.05014
▁office	-8.05108
▁case	-8.05274
▁house	-8.05298
ant	-8.05326
ler	-8.05927
mp	-8.0593
▁lo	-8.06187
▁played	-8.07802
▁result	-8.07946
▁ha	-8.08185
at	-8.0842
vi	-8.08949
▁father	-8.0901
▁times	-8.09387
to	-8.09395
▁everyone	-8.09636
▁berlin	-8.10038
▁turn	-8.10116
age	-8.10145
▁show	-8.10194
▁nothing	-8.10249
▁once	-8.10521
▁pre	-8.10891
▁red	-8.11188
ca	-8.11319
ig	-8.11615
▁order	-8.11703
▁ra	-8.11732
ther	-8.1176
▁f	-8.11821
ie	-8.12245
id	-8.12393
ner	-8.12452
▁west	-8.12491
▁pro	-8.12554
da	-8.127
▁power	-8.13614
v	-8.13739
less	-8.13834
▁room	-8.14357
ci	-8.14635
▁bar	-8.14644
▁built	-8.1471
▁number	-8.14769
▁enough	-8.15146
au	-8.1571
▁sch	-8.1585
ous	-8.1617
▁close	-8.16198
▁front	-8.16245
▁per	-8.1631
▁set	-8.16318
▁bit	-8.16782
▁become	-8.16913
ton	-8.17058
▁live	-8.17548
▁land	-8.17775
▁may	-8.17804
▁sa	-8.18066
▁construction	-8.18265
ish	-8.18827
▁real	-8.19077
tic	-8.19609
ling	-8.19637
▁fire	-8.19747
▁black	-8.20091
ated	-8.20139
▁studied	-8.20534
▁service	-8.20625
▁local	-8.21005
▁line	-8.21051
▁keep	-8.21229
ism	-8.21476
▁married	-8.21695
▁middle	-8.21695
▁completely	-8.22057
bi	-8.22107
▁named	-8.2215
▁behind	-8.22162
▁role	-8.22171
▁sometimes	-8.22399
▁season	-8.22414
ff	-8.22848
▁someone	-8.22902
▁soon	-8.22974
mi	-8.22994
as	-8.23209
▁stop	-8.23516
▁party	-8.23626
▁club	-8.23817
▁things	-8.24247
▁yet	-8.24308
▁ma	-8.24629
▁ta	-8.24673
ial	-8.25084
mann	-8.2516
▁po	-8.25346
▁band	-8.2553
am	-8.25678
▁following	-8.25694
▁white	-8.2623
berg	-8.26414
▁call	-8.26501
▁term	-8.26719
▁say	-8.26826
sh	-8.26834
▁means	-8.27018
▁age	-8.27161
▁stay	-8.27246
▁en	-8.27395
▁six	-8.27429
be	-8.27474
▁history	-8.27788
▁mainly	-8.27918
▁castle	-8.2798
ness	-8.28074
▁longer	-8.28316
▁ga	-8.28656
▁round	-8.28979
▁ti	-8.29008
▁anything	-8.29457
▁love	-8.29488
ga	-8.29684
▁went	-8.29786
▁pa	-8.29837
▁half	-8.30237
▁region	-8.30421
▁association	-8.30725
ten	-8.31191
▁language	-8.3129
▁park	-8.31343
▁period	-8.31494
▁art	-8.31513
▁probably	-8.31752
▁wall	-8.31962
▁community	-8.32529
▁special	-8.32729
▁eight	-8.32798
▁river	-8.32806
▁ho	-8.32993
▁u	-8.33071
▁big	-8.33161
ber	-8.33291
▁example	-8.33313
▁position	-8.3334
▁numerous	-8.33575
▁started	-8.33739
▁hu	-8.33831
▁mi	-8.33967
▁lu	-8.33972
▁quickly	-8.34213
▁change	-8.34324
▁others	-8.34361
ir	-8.34422
ni	-8.34527
▁whole	-8.34579
rs	-8.34628
▁international	-8.34632
▁run	-8.34659
▁according	-8.34821
▁instead	-8.34898
▁lives	-8.3499
▁former	-8.35039
▁street	-8.35432
▁afterwards	-8.35703
▁death	-8.3572
▁train	-8.35757
▁east	-8.3576
bo	-8.35843
▁mr	-8.35904
▁yourself	-8.35969
▁try	-8.36322
▁comes	-8.36388
▁hundred	-8.36508
pe	-8.3675
di	-8.37246
▁else	-8.37646
▁food	-8.37871
▁mu	-8.38003
▁received	-8.38077
▁court	-8.38142
▁federal	-8.38421
▁various	-8.38424
▁actually	-8.385
ha	-8.38543
▁read	-8.38575
▁lies	-8.38618
▁ex	-8.3922
▁test	-8.39319
▁vi	-8.39396
ot	-8.39573
son	-8.39857
▁based	-8.40126
▁ju	-8.40205
▁those	-8.40659
ance	-8.41145
ure	-8.41471
bu	-8.41549
ad	-8.41671
▁career	-8.41858
▁hard	-8.4251
ty	-8.42708
gg	-8.43092
ec	-8.43156
ka	-8.43281
un	-8.43508
▁clear	-8.43683
▁bi	-8.43712
▁seem	-8.43774
▁early	-8.43799
▁common	-8.43805
▁post	-8.43911
▁board	-8.43915
▁dis	-8.44049
▁research	-8.44307
ical	-8.44451
▁pi	-8.44532
pp	-8.44642
▁project	-8.44682
▁na	-8.44705
▁ka	-8.44815
▁thing	-8.44942
▁start	-8.45125
▁sp	-8.45163
▁followed	-8.45297
▁general	-8.46047
▁money	-8.46162
▁capital	-8.4646
tz	-8.46678
▁reason	-8.46684
▁english	-8.46759
▁da	-8.46785
▁wants	-8.46791
ph	-8.46793
▁process	-8.46832
▁market	-8.4709
hi	-8.4747
ver	-8.47536
▁va	-8.47836
▁list	-8.47909
▁production	-8.48001
▁country	-8.4801
▁support	-8.48125
▁w	-8.48128
▁ge	-8.48135
▁ba	-8.48233
▁night	-8.48271
▁individual	-8.48575
▁french	-8.48881
▁believe	-8.48963
▁oh	-8.4907
om	-8.49272
▁class	-8.49288
▁title	-8.49807
▁while	-8.49821
▁road	-8.50152
▁game	-8.50156
mb	-8.50586
▁remained	-8.50667
▁em	-8.50846
▁lower	-8.5105
sch	-8.51221
▁espe	-8.51369
▁body	-8.51401
▁human	-8.51401
▁color	-8.5142
▁hall	-8.51516
▁te	-8.51584
▁wood	-8.51712
▁forest	-8.52092
▁r	-8.52603
▁young	-8.52604
▁said	-8.52667
cy	-8.52675
▁lost	-8.52684
▁model	-8.52746
▁past	-8.53112
▁person	-8.5318
que	-8.53254
▁transport	-8.53266
▁bring	-8.53299
do	-8.53413
cially	-8.53445
▁field	-8.53478
op	-8.53582
ster	-8.53613
mo	-8.53706
gen	-8.54157
▁brother	-8.54239
▁near	-8.5426
▁working	-8.54301
▁seen	-8.54312
▁business	-8.54376
▁remove	-8.54444
ho	-8.54483
▁active	-8.5458
▁space	-8.54621
▁data	-8.54638
▁job	-8.54641
▁h	-8.54711
▁hold	-8.54846
▁child	-8.54861
▁top	-8.54911
▁mostly	-8.55092
▁program	-8.552
▁military	-8.55202
▁level	-8.55202
▁allowed	-8.55213
▁sta	-8.55326
▁book	-8.55455
▁development	-8.55552
▁cross	-8.5557
▁mother	-8.55586
▁least	-8.55859
hr	-8.55864
▁initially	-8.55932
▁care	-8.56016
▁author	-8.56134
no	-8.56394
▁se	-8.56405
▁seven	-8.5649
▁talk	-8.56861
▁cause	-8.57338
und	-8.57403
▁pe	-8.57482
▁voice	-8.57519
▁consist	-8.57528
ized	-8.57573
▁ever	-8.57717
▁education	-8.58182
▁official	-8.58192
▁thought	-8.58425
▁strong	-8.58444
▁railway	-8.58524
▁natural	-8.58534
▁drive	-8.5854
▁currently	-8.58561
▁dog	-8.58586
▁makes	-8.58787
▁ice	-8.58807
▁seat	-8.58839
▁interest	-8.58919
▁beginning	-8.59196
▁matter	-8.59225
▁present	-8.59373
▁finally	-8.59584
▁single	-8.59932
▁word	-8.60211
▁purpose	-8.6022
ger	-8.60435
▁difficult	-8.60563
▁route	-8.60566
▁government	-8.60568
lin	-8.60793
▁similar	-8.60908
▁teacher	-8.60995
▁available	-8.61254
▁ri	-8.61394
▁europe	-8.61544
▁subject	-8.61601
▁cut	-8.61697
ard	-8.61729
▁sun	-8.61782
les	-8.6179
▁fall	-8.61946
▁league	-8.6195
▁series	-8.61973
▁du	-8.62191
▁european	-8.62367
▁bank	-8.62776
▁central	-8.63003
▁ko	-8.63283
▁blue	-8.63635
▁break	-8.63776
▁lake	-8.63811
▁species	-8.64066
▁kind	-8.64097
▁mean	-8.64186
▁ni	-8.64229
▁follow	-8.64464
▁tell	-8.64552
▁plant	-8.64563
tor	-8.64806
▁pass	-8.64907
▁men	-8.64916
ba	-8.64928
▁american	-8.65082
▁green	-8.6529
▁born	-8.65393
he	-8.65428
▁social	-8.6548
▁ground	-8.65574
▁sea	-8.65876
▁died	-8.65892
▁yes	-8.65962
▁view	-8.66229
▁tri	-8.66259
▁leave	-8.66272
▁hair	-8.66272
▁island	-8.66337
▁act	-8.66449
▁jo	-8.66529
▁nine	-8.66668
▁door	-8.6674
▁current	-8.66914
led	-8.67007
▁twenty	-8.67327
▁thus	-8.67401
os	-8.67432
▁connection	-8.67744
▁developed	-8.678
▁upper	-8.67834
▁sound	-8.67971
▁council	-8.68067
we	-8.68164
▁song	-8.68166
▁wanted	-8.68208
▁depend	-8.68436
va	-8.68456
▁roman	-8.68486
ology	-8.68491
▁learn	-8.68809
min	-8.68878
▁tower	-8.69227
▁fact	-8.69391
▁success	-8.69623
▁maybe	-8.69626
io	-8.697
▁created	-8.69806
▁additional	-8.69852
▁stand	-8.69908
▁full	-8.69996
▁idea	-8.70155
▁members	-8.70357
▁days	-8.70458
▁fish	-8.70464
▁count	-8.70498
▁third	-8.70699
ship	-8.70734
vo	-8.7074
▁taken	-8.70819
▁final	-8.70857
▁rock	-8.70917
der	-8.71068
▁garden	-8.71087
▁text	-8.71456
▁taste	-8.71495
▁less	-8.71824
▁themselves	-8.71848
▁police	-8.71848
▁week	-8.71885
▁regional	-8.71923
▁stone	-8.71996
▁el	-8.72
▁museum	-8.72234
ful	-8.72286
▁rest	-8.7249
▁hi	-8.72493
▁ru	-8.7255
▁moved	-8.72606
ach	-8.72925
▁machine	-8.72975
▁album	-8.73019
▁held	-8.73043
▁animals	-8.7321
▁itself	-8.73402
▁needs	-8.7349
▁published	-8.73607
▁organ	-8.7372
▁drink	-8.73794
ization	-8.73842
▁goal	-8.74092
▁control	-8.74169
▁economic	-8.74187
▁low	-8.74481
▁women	-8.74589
▁anymore	-8.74633
▁cup	-8.74641
▁master	-8.74702
mar	-8.74895
▁takes	-8.74938
▁successful	-8.74979
▁director	-8.75048
▁pay	-8.75101
▁feel	-8.75255
▁m	-8.75307
ow	-8.75546
▁su	-8.75855
▁within	-8.75882
▁design	-8.75977
burg	-8.76075
▁famous	-8.76179
▁version	-8.76191
▁written	-8.76197
▁looks	-8.76221
▁hit	-8.76313
▁step	-8.76379
▁heat	-8.76451
▁areas	-8.7646
im	-8.76503
pa	-8.76559
▁certain	-8.76582
▁understand	-8.76591
▁sleep	-8.76987
▁information	-8.77018
▁style	-8.77169
▁responsible	-8.77404
▁ca	-8.77491
▁political	-8.77796
▁traffic	-8.77802
lu	-8.77863
▁port	-8.77967
▁cover	-8.7799
dy	-8.78024
den	-8.78144
▁attack	-8.78214
▁border	-8.78426
▁mark	-8.7847
▁supposed	-8.78623
▁population	-8.78623
mon	-8.787
▁je	-8.78828
▁daughter	-8.78847
▁wine	-8.79062
▁th	-8.79132
▁ste	-8.79158
▁training	-8.79203
nna	-8.79468
▁track	-8.79521
▁sub	-8.79584
▁easy	-8.79869
▁honor	-8.79869
▁card	-8.80105
▁along	-8.80278
▁material	-8.80287
▁department	-8.80291
▁ch	-8.80319
▁wa	-8.80468
▁si	-8.80488
▁ask	-8.80641
▁pu	-8.81098
▁structure	-8.81129
▁gets	-8.81292
▁direction	-8.81618
▁floor	-8.8164
▁done	-8.81847
▁nature	-8.81978
▁parents	-8.82007
▁anyone	-8.82013
▁rath	-8.82035
wa	-8.82133
▁king	-8.82242
▁player	-8.82357
▁stage	-8.82377
▁gas	-8.82391
▁either	-8.82405
▁anti	-8.82457
▁whe	-8.82474
▁radio	-8.82482
▁cool	-8.82564
rk	-8.82574
ron	-8.82746
▁popular	-8.82795
▁via	-8.83024
▁cold	-8.83239
▁influence	-8.83284
▁moment	-8.83373
▁gu	-8.83381
▁original	-8.83486
bach	-8.83495
▁remains	-8.83497
▁wrote	-8.83699
▁ball	-8.83783
▁army	-8.83919
ite	-8.83972
▁led	-8.84115
▁towards	-8.84184
wi	-8.84305
▁professional	-8.84343
up	-8.84577
▁speak	-8.84623
▁mountain	-8.84789
if	-8.84822
▁began	-8.84965
▁modern	-8.85009
▁walk	-8.85292
▁bus	-8.85361
▁sense	-8.85451
▁watch	-8.85452
▁nice	-8.85555
▁exactly	-8.85589
▁wrong	-8.85892
▁anyway	-8.85947
rought	-8.86078
▁deal	-8.86322
▁value	-8.86345
red	-8.86386
▁return	-8.86475
▁die	-8.86544
▁doing	-8.86661
▁bra	-8.867
▁store	-8.86714
▁using	-8.86801
▁largest	-8.86871
▁eat	-8.86891
▁goes	-8.87029
tu	-8.87064
▁pan	-8.87101
▁games	-8.87309
▁mind	-8.87327
▁eye	-8.87528
gu	-8.87664
ize	-8.87786
more	-8.87975
▁bu	-8.88001
▁god	-8.88119
▁focus	-8.88134
▁performance	-8.88146
▁above	-8.88591
▁risk	-8.88594
▁boy	-8.88933
▁living	-8.89046
▁southern	-8.8905
ng	-8.89138
▁dead	-8.89152
▁ship	-8.89161
mer	-8.89427
▁studies	-8.89504
▁entire	-8.89549
▁grew	-8.89551
▁pull	-8.89631
nder	-8.89807
tra	-8.8981
▁ne	-8.89818
▁minutes	-8.89973
▁private	-8.90011
▁plan	-8.90332
▁non	-8.90354
▁necessary	-8.90427
▁self	-8.90429
way	-8.90547
▁lack	-8.90601
▁question	-8.90708
▁changed	-8.90835
▁civil	-8.90893
▁contract	-8.90893
▁action	-8.91022
▁roll	-8.91327
▁er	-8.91335
▁carrie	-8.91343
▁technical	-8.9136
▁outside	-8.91486
▁ki	-8.91517
▁bre	-8.91792
▁location	-8.9183
▁buried	-8.9183
▁hope	-8.92087
▁check	-8.92372
▁playing	-8.92568
▁hours	-8.92653
▁cla	-8.92788
per	-8.93101
▁leaves	-8.93195
▁experience	-8.93227
▁story	-8.93301
▁sand	-8.93583
▁guy	-8.93675
bra	-8.93819
▁lived	-8.93837
ze	-8.93915
▁given	-8.93963
▁award	-8.94089
▁brown	-8.94211
▁beside	-8.9434
▁wife	-8.94694
▁served	-8.947
▁prevent	-8.9471
▁immediately	-8.94759
▁approach	-8.95179
ator	-8.95183
▁task	-8.95187
▁hot	-8.95224
▁particular	-8.95253
▁turned	-8.95482
▁shows	-8.95529
▁star	-8.95539
▁network	-8.9567
▁northern	-8.95673
▁municipality	-8.95694
▁base	-8.95768
em	-8.95883
▁race	-8.95905
ak	-8.95914
▁sign	-8.96127
▁include	-8.9615
▁temperature	-8.96157
▁christian	-8.96182
▁dark	-8.9622
▁serve	-8.96362
▁trade	-8.9651
▁simpl	-8.9651
▁buy	-8.96554
▁administrative	-8.96649
▁though	-8.96958
▁table	-8.96969
ists	-8.97044
▁method	-8.97145
▁basic	-8.97157
▁coat	-8.97176
▁protect	-8.97282
▁youth	-8.97357
▁clean	-8.97489
▁study	-8.97642
▁size	-8.97764
▁neu	-8.97833
▁paul	-8.98067
▁president	-8.98142
ium	-8.98311
▁foundation	-8.98465
▁parts	-8.98498
pi	-8.98708
▁operation	-8.98713
▁face	-8.98713
men	-8.98715
▁win	-8.98817
▁terms	-8.98905
▁plays	-8.98976
▁record	-8.98977
line	-8.98994
▁students	-8.9902
▁particularly	-8.99072
▁continued	-8.99107
▁cat	-8.99413
▁decision	-8.99657
▁industry	-8.99657
▁travel	-8.99658
▁deep	-8.99673
ki	-8.99686
▁cell	-8.997
▁historical	-8.99705
▁sure	-8.99855
▁cap	-9.0007
▁couple	-9.00168
▁horse	-9.00169
▁happen	-9.00206
che	-9.00259
▁produced	-9.00329
▁gra	-9.00513
▁pressure	-9.00697
▁fe	-9.00746
▁doctor	-9.00768
heim	-9.00949
▁function	-9.01013
▁ke	-9.01353
▁speed	-9.01656
▁feature	-9.01714
▁monastery	-9.01714
▁thousand	-9.01714
▁groups	-9.01789
ac	-9.01908
▁move	-9.01915
▁tour	-9.01931
▁oil	-9.0203
▁arms	-9.02149
▁unfortunately	-9.02247
▁tree	-9.02267
▁sports	-9.02406
ric	-9.02656
taking	-9.02716
▁wide	-9.02744
▁difference	-9.02776
▁listen	-9.02802
ius	-9.031
▁hands	-9.03257
▁battle	-9.03285
▁somehow	-9.03285
▁actor	-9.03323
▁date	-9.03332
▁jump	-9.03342
ud	-9.03635
▁key	-9.03693
▁type	-9.037
▁thirty	-9.03814
▁nobody	-9.03814
▁hamburg	-9.0382
▁settlement	-9.03828
▁ear	-9.03843
▁closed	-9.03962
▁buildings	-9.04237
▁inter	-9.04267
▁search	-9.04347
▁despi	-9.04356
▁bri	-9.04421
▁legal	-9.04477
▁regard	-9.04787
▁site	-9.04863
▁champion	-9.04864
▁blood	-9.0488
▁heart	-9.05251
ide	-9.0533
▁companies	-9.05418
▁leg	-9.05483
▁theater	-9.05616
▁san	-9.05875
▁organization	-9.05981
▁fell	-9.06132
▁grave	-9.06182
▁gold	-9.06218
▁extreme	-9.06502
▁valley	-9.06504
▁books	-9.06666
▁covered	-9.06953
▁secret	-9.07015
▁section	-9.07048
▁distance	-9.07049
▁standard	-9.07075
ier	-9.07162
▁ran	-9.07295
▁para	-9.07581
▁magazine	-9.07598
▁tomorrow	-9.07598
▁bear	-9.07704
▁protection	-9.0771
itz	-9.07942
▁unit	-9.08103
▁catholic	-9.0815
▁attention	-9.0816
▁tu	-9.0821
▁plants	-9.08247
▁primari	-9.08308
▁range	-9.08469
▁glass	-9.08529
▁share	-9.08554
▁add	-9.08582
▁county	-9.08704
▁contact	-9.08706
▁munich	-9.08706
▁pick	-9.08847
▁tra	-9.09012
▁code	-9.09125
▁degree	-9.09265
▁bottle	-9.09265
▁double	-9.09266
▁origin	-9.09304
▁otherwise	-9.09309
▁movement	-9.0931
▁provide	-9.09327
iv	-9.09498
▁manage	-9.09558
▁across	-9.09826
ors	-9.09911
▁total	-9.10036
fa	-9.10066
ina	-9.1007
▁knows	-9.10332
▁province	-9.10391
▁fight	-9.10425
▁spot	-9.1044
▁reached	-9.1055
▁established	-9.10583
▁scientific	-9.1096
▁yellow	-9.1096
▁originally	-9.10972
▁cities	-9.11017
▁apparently	-9.11029
▁simple	-9.11156
▁effect	-9.11159
hl	-9.11254
▁letter	-9.11267
▁eyes	-9.11315
▁directly	-9.11321
▁wi	-9.11416
▁save	-9.11454
▁lay	-9.11463
▁france	-9.11531
▁phone	-9.11533
the	-9.11571
▁earth	-9.11593
▁sentence	-9.1179
▁friend	-9.11868
▁cha	-9.11944
▁true	-9.12106
▁lie	-9.12308
qui	-9.1254
▁higher	-9.12582
▁driver	-9.12674
▁attempt	-9.12684
▁cemetery	-9.12684
▁cultural	-9.12684
▁monument	-9.12684
▁minister	-9.12684
▁demand	-9.12685
▁roof	-9.12697
feld	-9.1278
▁musical	-9.12933
▁problem	-9.12999
▁sentences	-9.13003
▁ku	-9.131
▁report	-9.13146
tan	-9.13247
▁entrance	-9.13265
▁marriage	-9.13265
▁situation	-9.13265
▁computer	-9.13265
▁trains	-9.13321
▁mrs	-9.13356
▁shortly	-9.13422
▁rules	-9.13511
▁union	-9.13524
▁happened	-9.13537
▁create	-9.13574
▁competition	-9.1385
▁division	-9.1385
ven	-9.13977
▁nor	-9.14206
▁multiple	-9.14441
▁austria	-9.14447
▁throw	-9.14454
▁slowly	-9.14633
▁hardly	-9.14699
▁finished	-9.14902
row	-9.14977
▁ski	-9.14982
▁mistake	-9.1503
▁technology	-9.1503
▁british	-9.1503
▁vienna	-9.1503
▁answer	-9.1503
▁divided	-9.15203
▁charge	-9.15363
▁wind	-9.15559
▁document	-9.15591
▁hear	-9.15608
▁happy	-9.15625
▁painting	-9.15656
▁completed	-9.15668
lar	-9.15893
bert	-9.15968
▁apart	-9.16193
▁surface	-9.16224
▁figure	-9.16224
▁weather	-9.16226
▁formed	-9.1623
▁print	-9.16249
▁coming	-9.16329
▁path	-9.16384
▁founded	-9.16485
▁host	-9.16537
▁decided	-9.16618
▁develop	-9.16635
▁build	-9.16782
▁major	-9.16785
▁future	-9.16827
ified	-9.16839
▁hans	-9.16915
▁camp	-9.17021
▁words	-9.17222
▁names	-9.17223
▁shi	-9.17257
▁peter	-9.1743
▁republic	-9.17432
▁fruit	-9.17432
▁edge	-9.17444
▁poor	-9.17633
▁cost	-9.17779
▁literature	-9.18042
▁fair	-9.18065
▁collection	-9.18106
▁require	-9.18153
▁ja	-9.18221
▁independent	-9.1824
▁months	-9.18248
▁flo	-9.18265
▁described	-9.18388
ities	-9.18441
side	-9.18591
▁movie	-9.18625
▁bridge	-9.18709
▁wait	-9.18732
▁iron	-9.18764
▁saw	-9.18818
▁force	-9.18894
▁inside	-9.189
▁media	-9.18947
▁stra	-9.19147
▁send	-9.19189
▁science	-9.19271
▁energy	-9.19273
▁l	-9.19374
ich	-9.19398
▁z	-9.1953
tal	-9.19766
▁appeared	-9.19815
ever	-9.19913
having	-9.20065
▁officer	-9.20099
ok	-9.2025
▁chi	-9.20342
▁fin	-9.20406
ren	-9.20407
▁solution	-9.20519
▁saint	-9.20524
▁planned	-9.20525
▁worth	-9.20623
▁meant	-9.20629
▁dance	-9.20642
▁mill	-9.20744
▁suit	-9.20753
▁trans	-9.20884
▁visit	-9.21014
▁notice	-9.21093
▁paris	-9.21098
▁remember	-9.21148
▁scene	-9.21148
▁avoid	-9.21149
▁sister	-9.21185
▁neighbor	-9.21226
▁wear	-9.21253
ov	-9.21387
▁fan	-9.216
by	-9.21683
▁involved	-9.21781
▁female	-9.21781
▁internet	-9.21782
▁offer	-9.21823
▁runs	-9.21992
▁problems	-9.22072
▁fast	-9.22093
▁attended	-9.22107
▁met	-9.22356
▁forms	-9.22363
▁easily	-9.22418
▁late	-9.22539
▁lock	-9.22718
▁write	-9.22767
▁older	-9.22961
▁concert	-9.23059
▁cream	-9.23059
▁guest	-9.23131
▁opened	-9.23172
▁generally	-9.23308
▁spa	-9.23419
▁fla	-9.23641
▁doubt	-9.23704
▁newspaper	-9.23704
▁writing	-9.23704
hn	-9.23709
▁comp	-9.23993
fi	-9.24189
▁tax	-9.24232
▁direct	-9.24274
▁dream	-9.24354
▁silver	-9.24362
▁cook	-9.24371
▁flight	-9.24375
▁sal	-9.24398
▁increase	-9.24506
▁farm	-9.24636
▁rain	-9.24674
▁measure	-9.24674
▁har	-9.24853
▁administration	-9.25007
▁friedrich	-9.25007
▁twelve	-9.25007
▁driving	-9.25007
▁morning	-9.2501
▁countries	-9.25022
gi	-9.25034
▁price	-9.2507
ward	-9.25158
▁states	-9.25237
▁significant	-9.25251
log	-9.25486
▁application	-9.25665
▁festival	-9.25665
▁principle	-9.25665
▁content	-9.25666
cient	-9.25675
▁treat	-9.25676
▁italian	-9.25676
▁touch	-9.25752
▁john	-9.25835
▁imp	-9.25839
ran	-9.25896
con	-9.25896
enburg	-9.25922
uc	-9.25996
▁awarded	-9.26046
let	-9.26074
▁released	-9.26095
▁herself	-9.26327
▁relationship	-9.26334
▁foot	-9.26391
▁kilometers	-9.26464
▁receive	-9.26494
▁changes	-9.2652
▁trees	-9.2664
▁animal	-9.26654
▁miss	-9.26973
▁professor	-9.26994
▁kept	-9.26996
▁fo	-9.2739
▁exist	-9.274
graph	-9.27417
▁agriculture	-9.27665
▁nowadays	-9.27665
▁included	-9.27676
▁quit	-9.27725
▁thereby	-9.28033
▁leader	-9.28082
▁returned	-9.28129
▁television	-9.28341
▁medal	-9.28371
▁sold	-9.28436
▁coach	-9.28449
▁fun	-9.28565
▁shot	-9.28945
▁accident	-9.29021
▁square	-9.29055
▁fill	-9.29135
▁fit	-9.29226
▁tro	-9.29305
▁rule	-9.29396
▁sport	-9.29549
▁switch	-9.29638
val	-9.29642
▁gi	-9.2965
▁nevertheless	-9.29706
▁society	-9.29706
▁yesterday	-9.29706
▁coast	-9.29721
▁preserved	-9.29797
▁sha	-9.30227
▁cor	-9.30291
▁commercial	-9.30396
▁airport	-9.3042
▁press	-9.30474
ological	-9.30499
time	-9.30624
▁paper	-9.30639
▁personal	-9.30655
▁supported	-9.30725
▁dam	-9.30865
▁cable	-9.30924
▁languages	-9.30948
▁link	-9.31079
▁novel	-9.31096
▁appearance	-9.31108
ug	-9.3118
▁fi	-9.31265
▁shape	-9.31312
▁failed	-9.31347
▁n	-9.31495
▁thank	-9.31658
▁performed	-9.31713
▁wing	-9.31746
▁volume	-9.31789
▁spread	-9.31789
▁cur	-9.31856
▁wish	-9.31893
cht	-9.32209
▁fa	-9.32255
▁starts	-9.32297
▁ring	-9.32303
▁meeting	-9.32337
ose	-9.32402
▁fu	-9.3244
▁grand	-9.32445
▁object	-9.3246
▁connected	-9.32462
▁circle	-9.32493
▁coffee	-9.32493
▁twice	-9.32493
▁football	-9.32499
▁flat	-9.32892
▁contains	-9.32985
▁occur	-9.33113
▁college	-9.33203
▁expert	-9.33203
▁smoke	-9.33203
▁shoot	-9.33282
▁carry	-9.33452
▁clearly	-9.33502
▁shaped	-9.33714
▁tip	-9.33834
▁concept	-9.33917
▁escape	-9.33917
▁russian	-9.34167
▁sur	-9.34167
▁counter	-9.34204
ries	-9.34204
▁partner	-9.3424
▁burn	-9.34381
▁match	-9.34531
▁municipal	-9.34585
▁windows	-9.34616
▁vehicle	-9.34628
▁talent	-9.34636
▁milk	-9.34637
▁making	-9.34638
▁display	-9.34644
▁eastern	-9.34694
▁ended	-9.34846
▁pet	-9.34866
▁recently	-9.34914
▁karl	-9.34955
▁speaking	-9.34985
▁ya	-9.35109
▁houses	-9.35169
▁editor	-9.35361
▁knowledge	-9.35361
iz	-9.35364
▁noise	-9.35373
▁majority	-9.3541
▁heard	-9.35432
▁winter	-9.35449
▁shop	-9.35496
▁italy	-9.35532
▁fine	-9.35534
▁cra	-9.35593
nne	-9.35725
▁allow	-9.35742
▁owner	-9.35772
han	-9.35781
▁electric	-9.35896
▁flows	-9.36015
▁access	-9.36084
▁library	-9.36091
▁running	-9.36101
▁western	-9.36158
▁pen	-9.36165
▁fly	-9.36167
hausen	-9.36173
▁motor	-9.36174
ik	-9.36189
▁che	-9.36195
▁results	-9.36204
ai	-9.36208
▁wheel	-9.36225
▁events	-9.36274
▁reasons	-9.36276
▁der	-9.3636
▁pri	-9.36576
▁reach	-9.36615
▁meaning	-9.36694
▁behavior	-9.36826
▁institute	-9.36826
▁choir	-9.36826
▁rich	-9.36841
one	-9.36991
▁statement	-9.37055
▁ban	-9.37205
▁mor	-9.37208
▁friends	-9.37233
▁safe	-9.37551
▁amount	-9.37567
▁procedure	-9.37567
▁committee	-9.37567
▁products	-9.37584
enberg	-9.37597
▁kar	-9.37737
▁kill	-9.37739
▁thanks	-9.37754
▁mat	-9.3784
▁trip	-9.37952
▁comment	-9.37962
▁broken	-9.38043
▁arm	-9.38289
▁beautiful	-9.38313
▁switzerland	-9.38313
▁opinion	-9.38313
▁quarter	-9.38313
▁straight	-9.38317
▁lawyer	-9.3832
▁complete	-9.38344
chi	-9.38398
▁y	-9.38639
▁health	-9.38696
▁dear	-9.38829
▁designed	-9.38963
▁instrument	-9.39065
▁complain	-9.39065
▁bishop	-9.39065
▁election	-9.39082
▁sort	-9.39143
▁row	-9.39189
▁stands	-9.39404
stadt	-9.39406
▁hour	-9.39434
▁destroyed	-9.39504
▁weight	-9.39583
bel	-9.39636
▁event	-9.39703
▁tea	-9.39707
tel	-9.39779
▁arch	-9.39802
▁cologne	-9.39823
▁london	-9.39823
▁video	-9.39823
▁prison	-9.39849
▁management	-9.39879
ring	-9.39944
▁character	-9.40026
▁musician	-9.40051
▁contain	-9.40061
▁practice	-9.40083
▁weak	-9.40204
▁signal	-9.40224
▁sounds	-9.40352
▁offers	-9.40384
▁asked	-9.40481
▁limited	-9.40492
▁equal	-9.40586
ja	-9.40603
▁baby	-9.40611
▁release	-9.40854
ek	-9.40964
za	-9.41096
▁separate	-9.4121
▁article	-9.41356
▁highly	-9.41416
▁america	-9.41482
▁offered	-9.41535
▁starting	-9.41573
▁fat	-9.41576
istic	-9.41601
▁highest	-9.41633
▁below	-9.41659
▁source	-9.41661
▁joined	-9.41839
▁cases	-9.42045
▁grow	-9.42056
▁graduat	-9.4213
▁security	-9.4213
▁block	-9.42131
▁blind	-9.42131
▁medical	-9.42133
▁image	-9.42136
▁woman	-9.42224
▁bomb	-9.4226
▁bike	-9.42297
▁enter	-9.42358
▁app	-9.42369
▁writer	-9.42485
fer	-9.42617
▁johann	-9.42735
cke	-9.42754
eg	-9.42767
▁connect	-9.42846
mark	-9.42867
▁quality	-9.42912
▁increasing	-9.42912
▁summer	-9.42935
▁tourist	-9.42995
old	-9.43039
▁achieved	-9.43158
▁picture	-9.43293
▁mine	-9.43419
▁dr	-9.43567
▁cal	-9.43573
over	-9.43586
▁lose	-9.43686
▁screen	-9.43699
▁greek	-9.43705
▁alternative	-9.43709
▁ober	-9.43774
▁wor	-9.43787
cker	-9.43834
▁weeks	-9.43883
▁questions	-9.43908
▁burg	-9.44162
called	-9.44184
▁removed	-9.44277
▁absolute	-9.44493
▁mouth	-9.44493
▁prince	-9.44493
▁strasse	-9.44518
▁bread	-9.44532
▁exhibition	-9.44548
▁col	-9.44552
▁parish	-9.44649
▁par	-9.44653
▁tail	-9.44656
▁teams	-9.44676
▁damage	-9.44825
▁parliament	-9.44869
▁hill	-9.44878
work	-9.44955
▁championship	-9.44977
▁songs	-9.45047
▁hospital	-9.45293
▁culture	-9.45293
▁reserve	-9.45293
▁adult	-9.45294
▁bag	-9.45303
▁claim	-9.45319
▁exception	-9.45355
▁passed	-9.45375
▁box	-9.45535
▁boat	-9.45539
ham	-9.45736
pper	-9.46024
▁might	-9.46107
▁prize	-9.46116
▁martin	-9.46142
▁accept	-9.46154
ative	-9.46205
▁customer	-9.46361
▁wo	-9.46409
▁fle	-9.46409
▁points	-9.46457
▁normal	-9.46497
▁artist	-9.46547
▁pra	-9.46707
▁engine	-9.46747
▁permanent	-9.46912
▁foreign	-9.46912
▁crown	-9.46913
▁royal	-9.46917
▁balance	-9.46929
▁super	-9.46941
▁explain	-9.46974
▁continue	-9.47055
▁rank	-9.47285
▁fields	-9.47285
▁corner	-9.47313
▁piece	-9.47551
for	-9.47589
▁euro	-9.47712
▁heavy	-9.47732
▁percent	-9.47732
▁typical	-9.47732
▁wilhelm	-9.47732
▁guitar	-9.47732
▁memory	-9.47732
▁relatively	-9.47733
▁waste	-9.47771
quite	-9.47833
▁costs	-9.47841
▁ages	-9.47941
▁successor	-9.47985
▁gav	-9.48016
▁moon	-9.48041
▁correct	-9.48042
gan	-9.48077
▁records	-9.48199
▁tur	-9.48344
▁branch	-9.48382
ctor	-9.48433
▁wild	-9.48459
▁planet	-9.4852
▁appointed	-9.48558
▁software	-9.48558
▁overall	-9.48566
▁forget	-9.48589
▁scar	-9.48677
out	-9.48746
▁evening	-9.4884
gel	-9.49094
▁fund	-9.49127
▁attract	-9.49359
▁activities	-9.49392
▁extensive	-9.49392
▁broadcast	-9.49393
▁background	-9.49425
▁min	-9.49509
▁wave	-9.49545
▁pure	-9.49793
▁x	-9.49839
▁referr	-9.49993
▁grown	-9.50017
▁singer	-9.50065
▁topic	-9.50074
▁mass	-9.50161
▁consider	-9.50168
▁audience	-9.50232
▁frankfurt	-9.50232
▁orient	-9.50232
▁judge	-9.50233
▁thick	-9.50235
▁authorities	-9.50259
▁chance	-9.50276
▁perform	-9.50324
▁meet	-9.50335
▁subsequently	-9.50448
▁ros	-9.50456
▁united	-9.50524
▁bro	-9.50717
▁pain	-9.50755
▁significantly	-9.50764
▁gun	-9.50847
▁dry	-9.50875
▁metal	-9.50885
▁austrian	-9.51066
▁communities	-9.51079
▁vehicles	-9.5109
▁york	-9.5109
▁hol	-9.51203
lon	-9.51312
▁camera	-9.51395
▁specialist	-9.51438
▁pictures	-9.51519
▁tradition	-9.51522
rge	-9.51527
▁says	-9.51602
▁lines	-9.51713
▁represented	-9.51738
▁account	-9.51934
▁institution	-9.51934
▁teeth	-9.51935
▁opposite	-9.51937
▁missing	-9.51941
▁appear	-9.51972
▁limit	-9.52042
sdorf	-9.52174
▁spe	-9.52339
▁regular	-9.52382
▁beat	-9.52539
▁meters	-9.52621
▁product	-9.52642
▁defense	-9.52796
▁religious	-9.52796
▁stretch	-9.52796
▁user	-9.52939
▁africa	-9.53081
▁mountains	-9.5323
▁colors	-9.53332
▁warm	-9.53405
▁rat	-9.5352
del	-9.53542
▁neighbors	-9.53552
▁jewish	-9.53666
▁landscape	-9.53666
▁opponent	-9.53666
▁situated	-9.53666
▁fresh	-9.53666
▁ze	-9.53667
▁representative	-9.53695
▁window	-9.53715
▁cake	-9.53738
▁rail	-9.53845
▁male	-9.53903
▁pieces	-9.53919
▁mayor	-9.54023
▁recognize	-9.54041
▁shown	-9.54347
▁trained	-9.54361
▁required	-9.54381
▁exchange	-9.54543
▁stuff	-9.54543
▁estate	-9.54545
▁chair	-9.54545
▁orange	-9.54545
▁sugar	-9.54556
▁sector	-9.54564
▁beach	-9.54566
▁apartment	-9.54606
ile	-9.54621
▁skin	-9.54701
▁factory	-9.5483
▁previously	-9.54952
cher	-9.5497
▁bor	-9.54974
▁loud	-9.55068
vent	-9.55123
▁standing	-9.55172
stein	-9.55369
▁react	-9.55382
▁financial	-9.55428
▁spent	-9.55442
▁movies	-9.55473
▁push	-9.55497
▁fuel	-9.55524
▁expect	-9.55559
▁reality	-9.5559
▁flow	-9.55605
▁replaced	-9.55668
▁theory	-9.55777
▁command	-9.55813
mmer	-9.55851
▁previous	-9.55907
▁serious	-9.55916
house	-9.55999
▁advantage	-9.56321
▁emergency	-9.56321
▁interior	-9.56321
▁stick	-9.56322
▁funny	-9.5633
▁hurt	-9.56366
▁stream	-9.56437
▁flag	-9.56482
zer	-9.56535
▁bone	-9.56821
▁rate	-9.56837
▁effects	-9.56854
ue	-9.56859
▁golden	-9.56866
light	-9.56937
aries	-9.5717
▁artificial	-9.57222
▁defend	-9.57222
▁register	-9.57222
▁captain	-9.57222
▁complex	-9.57222
▁weekend	-9.57226
▁importance	-9.5723
▁rid	-9.5725
▁unknown	-9.57299
▁pol	-9.57569
▁speaker	-9.57595
▁describe	-9.5763
▁broke	-9.57767
ette	-9.57805
▁saying	-9.57807
▁issue	-9.57911
▁films	-9.57952
▁exclusive	-9.58131
▁olympic	-9.58131
▁understood	-9.58131
▁everybody	-9.58136
▁brand	-9.5814
definitely	-9.58156
▁chairman	-9.58166
▁winner	-9.58194
▁painter	-9.58197
je	-9.58218
▁practical	-9.58271
▁obviously	-9.58281
▁van	-9.58313
▁jan	-9.58335
▁student	-9.58364
▁listed	-9.58582
ible	-9.58606
▁tries	-9.58675
▁fur	-9.58748
▁birth	-9.59044
▁august	-9.59048
▁conflict	-9.59048
▁effort	-9.59048
▁passenger	-9.59048
▁supply	-9.59048
▁graphic	-9.5905
▁shopping	-9.5905
▁sorry	-9.59051
▁desert	-9.59052
▁spring	-9.59079
▁reich	-9.59199
▁bay	-9.59238
▁customs	-9.59305
▁fee	-9.59347
▁bare	-9.59353
ification	-9.5943
▁fourth	-9.595
▁pack	-9.5963
ley	-9.5965
▁sit	-9.59826
▁provided	-9.59873
▁commission	-9.59974
▁soccer	-9.59974
▁latter	-9.59977
▁latin	-9.59982
▁spend	-9.59983
▁automatically	-9.59985
▁property	-9.59988
▁indian	-9.6002
▁industrial	-9.60021
ition	-9.6012
rew	-9.60143
par	-9.60172
com	-9.60218
▁nu	-9.60262
▁rarely	-9.60313
▁ride	-9.60336
car	-9.60347
▁flowers	-9.60744
van	-9.60747
▁reflect	-9.60909
▁applied	-9.60909
▁snow	-9.6091
▁wolf	-9.60917
▁swiss	-9.60921
▁zone	-9.60948
▁bla	-9.61064
▁creat	-9.61074
ates	-9.61187
▁climb	-9.61198
▁mentioned	-9.61263
▁resident	-9.61273
▁conditions	-9.61316
▁meat	-9.6139
▁measures	-9.61467
▁hero	-9.61479
▁needed	-9.61818
▁agricultural	-9.61852
▁heinrich	-9.61852
▁slightly	-9.61853
▁composition	-9.61855
▁pur	-9.61856
▁drug	-9.61865
▁meantime	-9.61877
▁shock	-9.61913
▁gear	-9.62044
▁bern	-9.6209
ability	-9.62165
our	-9.62204
▁discovered	-9.62363
ang	-9.62379
though	-9.62477
▁acting	-9.62617
▁respect	-9.62772
▁specific	-9.62797
▁disease	-9.62805
▁equipped	-9.62805
▁inhabitants	-9.62805
▁rhine	-9.62805
▁eleven	-9.62805
▁click	-9.62805
▁visible	-9.62806
▁piano	-9.62806
▁remain	-9.62811
▁earlier	-9.62811
▁killed	-9.62819
▁brake	-9.62883
▁digital	-9.62997
▁finish	-9.63052
▁bird	-9.63269
▁pit	-9.63283
▁march	-9.63391
port	-9.63437
▁pot	-9.63444
▁evidence	-9.63766
▁enjoy	-9.63766
▁kitchen	-9.63766
▁license	-9.63766
▁spanish	-9.63766
▁smell	-9.63767
▁taught	-9.63773
▁protestant	-9.63781
▁package	-9.63798
▁drum	-9.6385
▁chain	-9.63943
uck	-9.63989
▁ger	-9.64079
▁joke	-9.64101
ria	-9.64169
▁smaller	-9.64367
can	-9.6447
▁numbers	-9.64472
wald	-9.64476
▁diet	-9.64544
▁sing	-9.6459
▁collect	-9.64664
▁admit	-9.64697
▁contrast	-9.64737
▁perfect	-9.64737
▁somewhere	-9.64737
▁favorite	-9.64748
▁communication	-9.64763
▁appears	-9.64793
▁systems	-9.64817
▁china	-9.64825
▁represent	-9.64863
ography	-9.64902
▁max	-9.64934
▁producer	-9.64993
▁secondary	-9.65002
▁forces	-9.65116
▁regularly	-9.65206
▁element	-9.65295
▁quick	-9.65306
▁drop	-9.65398
▁tool	-9.65492
lie	-9.65583
▁qua	-9.65712
▁restaurant	-9.65717
▁characteristic	-9.65728
▁headquarters	-9.65787
fully	-9.65881
ung	-9.65924
▁aim	-9.66009
▁correspond	-9.66055
▁symbol	-9.66271
▁era	-9.66286
▁draw	-9.66465
▁loss	-9.66471
▁increased	-9.66476
▁reform	-9.66704
▁length	-9.66707
▁examination	-9.66708
▁empty	-9.66708
▁england	-9.66708
▁insurance	-9.66708
▁stopped	-9.66713
▁cloud	-9.66717
▁forward	-9.66754
▁frank	-9.66791
▁trick	-9.66893
▁skill	-9.66897
illa	-9.66985
hu	-9.67127
▁elements	-9.67136
▁blu	-9.67156
▁maria	-9.67207
▁dare	-9.67292
▁stem	-9.67296
hen	-9.67312
chen	-9.67315
▁photo	-9.67353
▁lau	-9.67425
▁month	-9.67445
▁manager	-9.67669
▁afraid	-9.67707
▁announced	-9.67707
▁conference	-9.67707
▁experiment	-9.67707
▁tournament	-9.67707
▁sweet	-9.67708
▁speech	-9.67708
▁citizens	-9.67772
▁acid	-9.67772
▁strip	-9.6783
▁whatever	-9.67977
▁scale	-9.68092
▁prove	-9.68144
▁traditional	-9.68192
▁plane	-9.68194
▁birds	-9.68232
▁recognized	-9.68283
▁ideal	-9.68305
▁opening	-9.68315
▁gone	-9.68531
▁und	-9.68617
▁surrounded	-9.68717
▁surrounding	-9.68717
▁narrow	-9.68718
▁troops	-9.68719
▁discussion	-9.68746
▁sight	-9.68768
ino	-9.68871
▁elected	-9.68885
▁frequently	-9.68888
▁compared	-9.68905
▁layer	-9.68937
▁berg	-9.69001
▁severe	-9.6914
▁championships	-9.6915
▁happens	-9.69186
▁joint	-9.69475
dorf	-9.69494
▁mal	-9.69494
▁christ	-9.69498
▁primar	-9.695
ular	-9.69674
▁michael	-9.69738
▁orchestra	-9.69738
▁generation	-9.69738
▁promise	-9.69741
▁lessons	-9.69745
▁staff	-9.6982
▁op	-9.69823
▁saxony	-9.69979
▁nut	-9.69993
▁rose	-9.70012
▁composer	-9.70052
▁luck	-9.70112
▁dia	-9.7025
▁players	-9.70314
▁determined	-9.70486
▁mis	-9.70549
▁academy	-9.70769
▁request	-9.70769
▁edition	-9.70772
▁stories	-9.70778
▁criticism	-9.70793
▁bright	-9.70796
▁prefer	-9.70797
▁electro	-9.70815
▁machines	-9.70863
▁mission	-9.70933
lor	-9.7097
▁visited	-9.70973
▁concern	-9.71051
▁char	-9.71066
▁artists	-9.71178
▁tre	-9.71201
bility	-9.714
▁services	-9.71402
▁pig	-9.7144
▁including	-9.71811
▁repair	-9.71811
▁chamber	-9.71811
▁adapt	-9.71811
▁brief	-9.71811
▁learned	-9.71819
▁legs	-9.71819
▁daily	-9.71829
▁message	-9.71842
▁sitting	-9.71862
▁reaction	-9.7193
▁soil	-9.71971
ath	-9.71993
▁neck	-9.72127
▁feed	-9.72294
known	-9.72446
▁feeling	-9.72506
▁ray	-9.72527
▁schu	-9.72535
▁flying	-9.72758
▁classic	-9.72783
▁distribution	-9.72863
▁flash	-9.72911
▁thin	-9.72928
▁mode	-9.72983
▁spin	-9.7302
▁eggs	-9.73038
▁larger	-9.73131
▁disappeared	-9.73157
▁added	-9.7324
▁flee	-9.73389
atic	-9.73509
▁ahead	-9.73626
▁ep	-9.73698
▁sho	-9.73803
▁busy	-9.73823
▁plate	-9.739
pel	-9.73919
▁concrete	-9.73927
▁universities	-9.73927
▁storm	-9.73935
▁ticket	-9.73944
▁visitors	-9.73954
▁respective	-9.73964
▁stock	-9.74013
▁j	-9.7411
bar	-9.74126
▁presented	-9.74158
form	-9.74202
▁finds	-9.74276
▁flu	-9.74366
ese	-9.74438
▁showed	-9.74576
▁recent	-9.74588
▁hole	-9.74804
▁express	-9.74918
▁mess	-9.7495
▁spit	-9.74968
▁anne	-9.74976
▁device	-9.74976
▁minute	-9.74982
▁stomach	-9.75002
▁knew	-9.75002
▁knock	-9.75002
▁stars	-9.75006
▁chapel	-9.75014
▁nei	-9.75045
og	-9.75051
▁waiting	-9.75063
▁poem	-9.75064
ker	-9.75118
ku	-9.75194
▁younger	-9.75222
▁domin	-9.75223
▁upon	-9.75664
▁issues	-9.75846
▁marked	-9.75918
▁choice	-9.76089
▁employed	-9.76089
▁myself	-9.76089
▁excuse	-9.76089
▁basis	-9.76097
▁detect	-9.76099
▁operating	-9.76128
▁organized	-9.76142
▁option	-9.76183
▁girl	-9.76183
▁carrier	-9.7619
▁types	-9.76326
▁plans	-9.76442
▁engines	-9.76449
cal	-9.76462
▁operated	-9.76485
▁mont	-9.76642
▁exists	-9.76647
mate	-9.76736
▁recommended	-9.76744
▁solo	-9.76763
clock	-9.7686
lessly	-9.77187
▁criminal	-9.77188
▁leaf	-9.77189
▁copy	-9.77195
▁occasionally	-9.77218
▁guard	-9.77236
▁agent	-9.77275
▁affected	-9.77554
▁apple	-9.77623
▁bur	-9.77685
▁agree	-9.77753
ches	-9.77754
wing	-9.77808
▁activity	-9.78299
▁dialect	-9.78299
▁load	-9.78428
▁label	-9.78434
▁ruin	-9.78606
▁mail	-9.78646
▁journalist	-9.78755
her	-9.78805
▁constant	-9.79029
▁mixed	-9.79037
▁cas	-9.79074
▁del	-9.79166
▁fingers	-9.79302
▁bell	-9.79391
▁cathedral	-9.79423
▁kindergarten	-9.79423
▁biggest	-9.79423
▁ocean	-9.79423
▁robert	-9.7949
▁auto	-9.79538
ple	-9.79551
▁brick	-9.79617
▁queen	-9.79677
▁sales	-9.79761
▁bal	-9.79777
isch	-9.79831
▁falls	-9.79853
▁sources	-9.8011
hof	-9.80128
▁baden	-9.80253
▁container	-9.80552
▁trust	-9.80559
▁politics	-9.80559
▁positive	-9.8056
▁okay	-9.8056
▁laugh	-9.80562
▁robot	-9.80563
▁lord	-9.80569
▁childhood	-9.80574
▁crime	-9.80588
▁frame	-9.80602
▁status	-9.8061
▁manufacturer	-9.80622
▁steam	-9.80636
▁throughout	-9.80666
▁minor	-9.80714
▁pool	-9.8073
▁hotel	-9.80789
▁bio	-9.80882
▁reading	-9.80963
▁ready	-9.80991
▁rare	-9.81035
▁recorded	-9.81116
▁mix	-9.81161
ike	-9.81183
▁critic	-9.81232
▁differently	-9.81278
▁gen	-9.81333
▁salt	-9.81405
▁singing	-9.81412
ita	-9.81617
▁za	-9.81622
▁architect	-9.81686
▁candidate	-9.81709
▁economy	-9.81709
▁leaving	-9.81709
▁meanwhile	-9.81709
▁patient	-9.81709
▁religion	-9.81709
▁studio	-9.81709
▁empire	-9.81709
▁urban	-9.81709
▁filter	-9.81709
▁liquid	-9.81709
▁policy	-9.81709
▁tongue	-9.8171
▁medium	-9.81711
▁fought	-9.81713
▁characterized	-9.81738
▁blow	-9.81744
▁zero	-9.81794
▁occurs	-9.81828
▁arranged	-9.81851
▁teaching	-9.81947
▁sin	-9.81968
▁web	-9.81969
▁et	-9.82007
▁sto	-9.82076
ey	-9.82094
▁consequences	-9.82161
▁functions	-9.82167
▁daughters	-9.82241
▁gar	-9.82253
▁peace	-9.82417
▁placed	-9.82432
▁kl	-9.82498
▁flower	-9.82501
▁eva	-9.8256
▁nose	-9.82593
ya	-9.82653
▁conduct	-9.8272
▁cooking	-9.82869
▁expensive	-9.82871
▁medicine	-9.82871
▁pattern	-9.82871
▁decade	-9.82872
▁franz	-9.82872
▁japanese	-9.82876
▁inspir	-9.82882
▁warning	-9.82921
▁dedicated	-9.82945
▁factor	-9.83056
▁gro	-9.83057
▁million	-9.83061
▁noble	-9.83123
▁islands	-9.83188
▁artistic	-9.83233
top	-9.83325
▁gate	-9.83338
▁oldes	-9.8334
▁originate	-9.83341
▁refer	-9.83348
▁boss	-9.83385
▁eating	-9.83405
▁georg	-9.83452
ball	-9.83488
▁employees	-9.8349
▁suffered	-9.83523
▁kra	-9.83685
▁handle	-9.8375
▁expected	-9.83868
▁contribut	-9.83946
▁investigat	-9.83947
▁girls	-9.83947
▁colleague	-9.84048
▁facilities	-9.84048
▁stuttgart	-9.84048
▁essential	-9.84048
▁chief	-9.84049
▁actress	-9.84049
▁shut	-9.8405
▁average	-9.8405
▁bought	-9.84056
▁creative	-9.84089
▁guide	-9.84112
▁tram	-9.84145
ft	-9.84152
▁map	-9.84191
▁root	-9.8421
▁determine	-9.84339
▁pair	-9.84553
▁ships	-9.84644
▁prepared	-9.84804
▁inform	-9.8489
ome	-9.8498
▁fra	-9.85119
▁global	-9.85238
▁destination	-9.85238
▁residence	-9.85238
▁substance	-9.85238
▁chemical	-9.85238
▁dispute	-9.85238
▁pretty	-9.8524
▁shirt	-9.85242
▁cheap	-9.85243
▁juice	-9.85305
▁profit	-9.85308
▁delete	-9.85379
▁tie	-9.85396
▁trace	-9.85538
▁pop	-9.8554
ei	-9.85541
▁cast	-9.85553
▁duke	-9.85573
▁promoted	-9.8561
▁rejected	-9.85697
▁stepp	-9.85718
▁seriously	-9.85795
tsch	-9.86078
▁growing	-9.86248
▁join	-9.86353
▁equipment	-9.86443
▁everywhere	-9.86443
▁satellite	-9.86443
▁territory	-9.86443
▁bronze	-9.86443
▁trouble	-9.86443
▁appeal	-9.86445
▁stress	-9.86446
▁reveal	-9.86446
▁breath	-9.86463
▁polish	-9.86481
▁easier	-9.86505
▁kids	-9.86506
▁hang	-9.86559
▁useful	-9.86623
see	-9.86658
▁bill	-9.86679
▁succeeded	-9.8678
har	-9.86854
▁rome	-9.87044
▁spelling	-9.87044
▁borders	-9.87055
▁bavaria	-9.87078
▁careful	-9.87308
▁browser	-9.87663
▁depict	-9.87663
▁nucle	-9.87663
▁stadium	-9.87663
▁threat	-9.87663
▁governor	-9.87704
▁blame	-9.87721
▁electricity	-9.87731
▁washing	-9.87734
▁nord	-9.87771
▁presentation	-9.87985
don	-9.8814
▁gained	-9.88156
▁walking	-9.88247
meter	-9.88384
▁fri	-9.88551
▁gray	-9.88578
▁lecture	-9.88593
▁mur	-9.88681
ula	-9.88703
▁talking	-9.88847
▁appropriate	-9.88897
▁joseph	-9.88897
▁leipzig	-9.88897
▁sponsor	-9.88897
▁stupid	-9.88897
▁baroque	-9.88897
▁translated	-9.88898
▁target	-9.88898
▁democratic	-9.88929
▁agreement	-9.88945
▁raised	-9.89047
▁assumed	-9.89052
▁aid	-9.89069
▁steel	-9.89145
▁regarding	-9.89163
▁hat	-9.89219
▁opera	-9.89242
j	-9.89307
▁participated	-9.89452
▁sw	-9.89502
▁detail	-9.89544
horn	-9.8957
▁grows	-9.89629
room	-9.89642
ah	-9.8968
▁bun	-9.89725
▁remaining	-9.89741
▁slow	-9.89796
ane	-9.89883
▁harm	-9.89915
kin	-9.89944
rac	-9.9
▁pipe	-9.90019
▁suggest	-9.90045
▁yo	-9.90086
▁owned	-9.901
▁maintenance	-9.90147
▁scream	-9.90147
▁chinese	-9.90147
▁chosen	-9.90148
▁husband	-9.90148
▁alarm	-9.90159
▁photograph	-9.90159
▁hello	-9.90184
▁ram	-9.90268
nny	-9.90372
▁ser	-9.90373
▁huge	-9.9043
▁recommend	-9.90652
▁kiss	-9.90691
head	-9.9079
▁condition	-9.90863
▁sum	-9.91109
▁bass	-9.91223
▁entered	-9.91376
▁benefit	-9.91413
▁perspective	-9.91413
▁smooth	-9.91413
▁volunteer	-9.91413
▁aspect	-9.91413
▁strike	-9.91417
▁planning	-9.91423
▁internal	-9.91426
▁dress	-9.91429
▁gift	-9.91432
▁devices	-9.91444
▁strange	-9.91446
▁literar	-9.91449
▁tourism	-9.91486
▁suddenly	-9.91591
▁prime	-9.91724
▁surprised	-9.91744
▁extended	-9.91884
▁founder	-9.92325
▁explained	-9.92597
▁complicated	-9.92695
▁contemporary	-9.92695
▁cycle	-9.92695
▁freight	-9.92695
▁tunnel	-9.92695
▁climate	-9.92695
▁truth	-9.92695
▁soviet	-9.92695
▁split	-9.92698
▁sciences	-9.92699
▁william	-9.92699
▁core	-9.92704
▁keyboard	-9.92707
▁native	-9.92714
▁sole	-9.92725
▁praise	-9.92752
▁desired	-9.92796
▁switched	-9.92823
▁alone	-9.92837
▁poet	-9.92872
▁destroy	-9.93238
▁shell	-9.93373
▁formation	-9.93381
▁trainer	-9.93567
▁exact	-9.93581
slav	-9.93834
▁except	-9.93892
▁otto	-9.93964
é	-9.93994
▁breakfast	-9.93994
▁context	-9.93994
▁philosophy	-9.93994
▁thomas	-9.93994
▁knight	-9.93994
▁folk	-9.93995
▁roast	-9.9401
▁alright	-9.94035
▁environment	-9.94052
▁analysis	-9.94084
▁script	-9.94104
▁expression	-9.94117
▁earn	-9.94139
▁authority	-9.94157
▁multi	-9.9419
▁net	-9.94363
▁clo	-9.94519
▁spoke	-9.94727
ben	-9.94776
▁parties	-9.9482
▁spell	-9.94877
▁farmer	-9.94971
▁gene	-9.95057
▁rear	-9.95141
▁pal	-9.9517
▁favor	-9.95295
▁bottom	-9.9531
▁california	-9.9531
▁campaign	-9.9531
▁victim	-9.9531
▁valuable	-9.9531
▁eventually	-9.9531
▁exhaust	-9.9531
▁drain	-9.95311
▁drill	-9.95311
▁dough	-9.95312
▁tank	-9.95323
▁grant	-9.95369
▁wonder	-9.95428
▁introduced	-9.95453
▁prepare	-9.95477
▁myth	-9.95483
not	-9.95525
▁kur	-9.95635
▁vice	-9.95641
yard	-9.95694
▁settled	-9.95722
▁emerg	-9.95973
▁classical	-9.95998
▁kick	-9.96016
▁reduce	-9.96141
▁rod	-9.96148
▁bake	-9.96333
board	-9.96397
▁ur	-9.96427
nja	-9.96517
▁danger	-9.9663
▁battery	-9.96643
▁ludwig	-9.96643
▁hockey	-9.96643
▁unlike	-9.96643
▁chicken	-9.96644
▁error	-9.96645
▁partially	-9.96646
▁housing	-9.96646
stone	-9.96692
▁associated	-9.96714
▁loose	-9.9673
▁disc	-9.96817
▁lying	-9.96835
▁installed	-9.96873
endorf	-9.96947
▁expanded	-9.96965
▁lin	-9.97042
▁composed	-9.97095
berries	-9.97141
▁rise	-9.97148
▁recordings	-9.97296
▁mad	-9.97305
▁till	-9.97358
▁apply	-9.97402
▁residents	-9.97469
▁cri	-9.97478
tag	-9.97554
▁characters	-9.97584
▁ms	-9.97772
▁shooting	-9.97877
▁corn	-9.97906
▁citizen	-9.97907
▁suffer	-9.97947
▁representatives	-9.9796
▁interview	-9.97994
▁negative	-9.97994
▁possibility	-9.97994
▁sufficient	-9.97994
▁impact	-9.97995
▁reference	-9.97995
▁hidden	-9.97995
▁address	-9.97995
▁audio	-9.97995
▁christmas	-9.97997
▁strict	-9.97998
ola	-9.98172
▁semi	-9.9818
▁attached	-9.98259
▁gre	-9.98266
▁fried	-9.98324
▁matches	-9.98341
▁alive	-9.9848
▁den	-9.98574
▁begins	-9.98592
▁rust	-9.98823
▁canton	-9.9903
gar	-9.99045
▁ham	-9.99213
▁drama	-9.99335
▁discover	-9.99347
▁channel	-9.99364
▁somewhat	-9.99364
▁stroke	-9.99364
▁crazy	-9.99365
▁giving	-9.99365
▁diving	-9.99366
▁dutch	-9.99367
▁agency	-9.99367
▁rural	-9.99367
▁launch	-9.99372
▁racing	-9.99373
▁aircraft	-9.99382
▁weapons	-9.99404
▁finance	-9.99413
▁valid	-9.99419
▁approved	-9.99465
▁statu	-9.99468
▁egg	-9.99482
▁witt	-9.99507
bed	-9.99509
▁online	-9.99542
▁laid	-9.9959
mail	-9.99689
▁lind	-9.99717
▁chess	-9.99771
▁magic	-9.99789
▁fully	-9.9984
▁photos	-9.99841
▁thinking	-10
▁eli	-10.0025
ule	-10.0063
▁occasion	-10.0072
▁descend	-10.0075
▁australia	-10.0075
▁comparison	-10.0075
▁heavily	-10.0075
▁hungry	-10.0075
▁locomotive	-10.0075
▁possession	-10.0075
▁potential	-10.0075
▁responsibility	-10.0075
▁revolution	-10.0075
▁assistant	-10.0075
▁defeat	-10.0075
▁beyond	-10.0075
▁related	-10.0075
▁pilot	-10.0076
▁felt	-10.0076
▁failure	-10.0077
▁unclear	-10.008
▁safety	-10.008
▁massive	-10.0081
▁burned	-10.0083
▁knee	-10.0083
▁clothes	-10.0089
▁helped	-10.0092
▁india	-10.0094
▁converted	-10.0095
▁sent	-10.0096
▁dig	-10.0102
press	-10.0113
mel	-10.0118
▁rent	-10.0126
▁vote	-10.0127
▁catch	-10.0128
▁critical	-10.0129
▁cry	-10.0131
▁details	-10.0143
ella	-10.0171
▁holidays	-10.0182
▁soldiers	-10.0182
▁micro	-10.0187
▁southeast	-10.0213
▁bud	-10.0214
▁publish	-10.0214
▁advice	-10.0216
▁bundesliga	-10.0216
▁challenge	-10.0216
▁component	-10.0216
▁emperor	-10.0216
▁imperial	-10.0216
▁oblig	-10.0216
▁applies	-10.0216
zzle	-10.0217
▁gym	-10.0217
▁forgotten	-10.0219
▁advertisement	-10.0219
▁broad	-10.022
▁stuck	-10.0223
▁decide	-10.0225
▁rubb	-10.0226
▁burst	-10.0227
▁carbon	-10.023
▁derived	-10.024
▁jean	-10.0241
▁hart	-10.0252
▁arrived	-10.0253
tory	-10.0254
▁hau	-10.0255
here	-10.0265
▁conductor	-10.0266
▁swed	-10.0273
▁participants	-10.0278
▁sell	-10.0278
▁maintain	-10.0283
▁lion	-10.0289
▁commander	-10.0297
▁actual	-10.0318
▁constitution	-10.0319
▁participate	-10.0319
ani	-10.0333
enbach	-10.0337
▁historic	-10.0346
▁mel	-10.0347
▁tape	-10.0349
▁accepted	-10.0349
▁mole	-10.0351
▁holy	-10.0356
▁academic	-10.0359
▁occupied	-10.0359
▁regulation	-10.0359
▁review	-10.0359
▁sweat	-10.0359
▁resistance	-10.036
▁caught	-10.036
▁cheese	-10.036
▁transferred	-10.0361
▁comfortable	-10.0361
▁shift	-10.0361
▁corps	-10.0361
▁architecture	-10.0362
▁predominantly	-10.0366
▁swim	-10.0367
▁polar	-10.0376
etic	-10.038
▁none	-10.0388
▁hof	-10.0389
▁reduced	-10.0413
ily	-10.0422
▁donation	-10.0423
ana	-10.0434
▁indicate	-10.0454
▁ruler	-10.047
hagen	-10.0478
▁zi	-10.048
▁rum	-10.0488
▁interesting	-10.0493
▁exhibit	-10.0494
▁grab	-10.05
▁relevant	-10.0504
▁tissue	-10.0504
▁crowd	-10.0504
▁electronic	-10.0504
▁remind	-10.0505
▁legend	-10.0505
▁transition	-10.0506
▁murder	-10.0506
▁proof	-10.0507
▁shoes	-10.0528
▁brain	-10.0539
▁told	-10.054
▁cleaning	-10.0549
▁nest	-10.055
zo	-10.0557
▁colored	-10.056
▁engineering	-10.0562
▁attend	-10.0577
▁alt	-10.0588
▁neo	-10.0597
▁manag	-10.0599
▁que	-10.062
east	-10.0647
▁fundamental	-10.0651
▁gabriel	-10.0651
▁asteroid	-10.0651
▁collapse	-10.0651
▁families	-10.0651
▁truck	-10.0651
▁fourteen	-10.0651
▁transfer	-10.0652
▁relativ	-10.0653
▁alex	-10.0654
▁spark	-10.0654
▁familiar	-10.0657
▁mag	-10.0659
▁priest	-10.0661
▁radi	-10.0662
▁wald	-10.0689
▁socialist	-10.0696
▁grass	-10.0709
▁westphalia	-10.0714
▁bavarian	-10.0722
▁pitch	-10.0722
▁stable	-10.0732
▁herb	-10.0739
▁trail	-10.0768
▁entirely	-10.0785
▁sick	-10.0792
▁formula	-10.0793
▁initiative	-10.08
▁journey	-10.08
▁progress	-10.08
▁silence	-10.08
▁variety	-10.08
▁precise	-10.08
▁april	-10.08
▁intended	-10.08
▁rhein	-10.08
▁witness	-10.08
▁adjust	-10.08
▁flood	-10.08
▁consume	-10.0802
▁sail	-10.0813
▁wal	-10.082
▁finger	-10.0823
▁hide	-10.0827
▁grain	-10.0833
▁survive	-10.0841
▁bau	-10.0847
▁clock	-10.0853
▁constructed	-10.0856
war	-10.0857
day	-10.0858
hood	-10.0868
▁disco	-10.0869
▁correctly	-10.0876
▁asia	-10.0881
▁dub	-10.0881
ische	-10.0885
▁faster	-10.0895
▁trial	-10.0908
▁operate	-10.0913
▁survived	-10.0919
▁jam	-10.0935
lingen	-10.0936
▁interrupt	-10.0952
▁chocolate	-10.0952
▁grandfather	-10.0952
▁ministry	-10.0952
▁yeah	-10.0952
▁choose	-10.0952
▁screw	-10.0952
▁quiet	-10.0952
▁storage	-10.0952
▁annual	-10.0952
▁annoy	-10.0952
▁repeat	-10.0952
▁justice	-10.0953
▁sunday	-10.0954
▁brun	-10.0954
▁dangerous	-10.0955
▁publications	-10.0955
▁underground	-10.0957
▁successfully	-10.0961
▁growth	-10.0963
▁lamp	-10.0981
▁branches	-10.0984
▁anton	-10.0994
▁rice	-10.0995
▁worse	-10.0995
▁reported	-10.0997
▁signed	-10.1034
▁accordingly	-10.1037
▁george	-10.1051
▁strength	-10.1073
▁calendar	-10.1106
▁dimension	-10.1106
▁extension	-10.1106
▁vegetable	-10.1106
▁silent	-10.1106
▁kingdom	-10.1106
▁decline	-10.1106
▁sauce	-10.1106
▁moving	-10.1106
▁instance	-10.1106
▁physical	-10.1106
▁tonight	-10.1106
▁bicycle	-10.1107
▁freiburg	-10.1107
off	-10.1107
▁accessible	-10.1107
▁pond	-10.1108
▁investment	-10.1108
▁tight	-10.111
▁intention	-10.1111
▁peak	-10.1112
▁zu	-10.1116
▁crew	-10.1116
▁ob	-10.1121
▁fear	-10.1124
▁wie	-10.1126
▁genre	-10.1128
▁directed	-10.113
▁impression	-10.1143
▁lang	-10.1145
ably	-10.1176
▁bonn	-10.1178
acti	-10.118
▁publisher	-10.1181
▁cow	-10.1188
▁emerged	-10.1194
▁ordered	-10.1195
▁processes	-10.1197
▁server	-10.1208
▁cro	-10.1217
ura	-10.1232
▁cord	-10.1244
of	-10.125
▁relation	-10.1261
▁affair	-10.1262
▁alcohol	-10.1262
▁brigade	-10.1262
▁confused	-10.1262
▁conversation	-10.1262
▁cooperation	-10.1262
▁diocese	-10.1262
▁recognition	-10.1262
▁changing	-10.1262
▁enemy	-10.1262
▁translation	-10.1262
▁remote	-10.1262
▁sixteen	-10.1262
▁manual	-10.1266
haps	-10.1266
▁fifth	-10.1267
▁workers	-10.1268
▁approximately	-10.1269
▁magnetic	-10.1269
▁contribution	-10.1275
▁fever	-10.1276
▁hop	-10.1285
▁toilet	-10.1286
▁powerful	-10.129
▁sar	-10.1292
▁grey	-10.1307
▁produce	-10.1329
▁sheet	-10.133
▁spoken	-10.1332
▁belly	-10.1335
▁normally	-10.1343
▁hack	-10.1343
▁protected	-10.1344
▁maintained	-10.1346
▁separated	-10.1365
▁achieve	-10.137
▁scha	-10.1377
▁hesse	-10.1409
back	-10.1417
▁hub	-10.1419
▁calculate	-10.1421
▁controversial	-10.1421
▁identity	-10.1421
▁simultaneously	-10.1421
▁drunk	-10.1421
▁jazz	-10.1421
▁christoph	-10.1421
▁column	-10.1421
▁properties	-10.1421
▁wedding	-10.1421
▁stood	-10.1421
▁honest	-10.1421
▁requirements	-10.1421
▁wealth	-10.1421
▁politically	-10.1423
▁alongside	-10.1425
rald	-10.1425
▁assembly	-10.1429
▁fred	-10.1434
▁prussian	-10.1447
▁processing	-10.1448
▁strongly	-10.1457
▁manner	-10.1458
▁pastor	-10.1464
wise	-10.1469
▁bull	-10.1472
ux	-10.15
▁const	-10.1529
▁promote	-10.1532
▁settle	-10.1535
jo	-10.1539
▁subsequent	-10.154
▁saxon	-10.1544
▁hind	-10.1567
▁differ	-10.1582
▁episode	-10.1582
▁resources	-10.1582
▁dresden	-10.1582
▁profile	-10.1582
▁labor	-10.1582
▁swimming	-10.1582
▁tubingen	-10.1582
▁klaus	-10.1582
▁forgot	-10.1584
▁israel	-10.1586
▁richard	-10.1586
▁compete	-10.1587
▁bremen	-10.1587
▁walter	-10.1589
▁cancer	-10.1589
▁lung	-10.1593
▁din	-10.1593
▁highway	-10.1599
▁curve	-10.1601
▁defined	-10.1604
▁spain	-10.1609
▁breed	-10.1612
▁obtained	-10.1625
asse	-10.1638
▁chest	-10.1647
▁mary	-10.165
haus	-10.1669
▁corresponding	-10.1689
mmy	-10.1693
▁suspect	-10.1746
▁assigned	-10.1746
▁conclusion	-10.1746
▁decisive	-10.1746
▁technique	-10.1746
▁amazing	-10.1746
▁relax	-10.1746
▁freedom	-10.1746
▁inherit	-10.1746
▁mold	-10.1753
vin	-10.1754
▁sacr	-10.1756
▁experienced	-10.1759
▁realized	-10.176
▁lens	-10.1773
▁shower	-10.1785
▁organic	-10.1799
▁whom	-10.1802
▁sieg	-10.181
▁lip	-10.1813
▁northwest	-10.1821
▁pai	-10.1824
▁engineer	-10.1826
▁russia	-10.1854
▁wil	-10.1858
ima	-10.1859
▁cancel	-10.1862
▁stove	-10.187
▁dude	-10.1873
▁gall	-10.1878
▁closely	-10.189
▁cam	-10.1894
▁surviv	-10.1904
▁virtual	-10.1912
▁circula	-10.1912
▁description	-10.1912
▁distributed	-10.1912
▁oxygen	-10.1912
▁platform	-10.1912
▁predecessor	-10.1912
▁supplies	-10.1912
▁czech	-10.1912
▁meadow	-10.1912
▁resign	-10.1912
▁david	-10.1913
▁sharp	-10.1913
▁advise	-10.1913
▁appointment	-10.1913
▁barrel	-10.1913
fall	-10.1914
▁income	-10.1915
▁relief	-10.1917
▁schon	-10.1925
▁loop	-10.193
▁adopted	-10.1936
fish	-10.1938
▁crack	-10.1938
bling	-10.1946
▁villa	-10.1948
▁discussed	-10.1948
▁electrical	-10.1948
▁chip	-10.1961
post	-10.1991
ju	-10.202
▁meter	-10.2024
kirch	-10.2036
▁raw	-10.2064
▁refu	-10.2074
▁environmental	-10.2074
▁spirit	-10.2082
▁dusseldorf	-10.2082
▁facility	-10.2082
▁incorrect	-10.2082
▁instruction	-10.2082
▁reception	-10.2082
▁rhythm	-10.2082
▁zurich	-10.2082
▁junior	-10.2082
▁deserve	-10.2082
▁faith	-10.2082
▁unique	-10.2082
▁trigger	-10.2082
▁crystal	-10.2082
▁ernst	-10.2082
▁phase	-10.2082
▁konig	-10.2082
▁sky	-10.2083
▁brandenburg	-10.2084
▁pedal	-10.2085
▁debt	-10.2087
▁poetry	-10.2088
▁painted	-10.209
▁exam	-10.2092
▁bow	-10.2096
▁existed	-10.2103
▁craft	-10.2105
▁acquired	-10.2106
▁kre	-10.2111
▁gross	-10.2115
▁constitutional	-10.2129
▁employee	-10.2163
▁bite	-10.2184
▁proven	-10.219
▁independently	-10.2198
▁proper	-10.2222
▁button	-10.2239
rious	-10.2242
▁stein	-10.225
▁advertising	-10.2254
▁alexander	-10.2254
▁combination	-10.2254
▁gymnasium	-10.2254
▁selected	-10.2254
▁plastic	-10.2254
▁fridge	-10.2254
▁idiot	-10.2255
▁gothic	-10.2255
▁committed	-10.2257
▁tube	-10.2257
▁installation	-10.2258
▁logic	-10.2263
▁theatre	-10.2264
▁latest	-10.2265
▁pump	-10.2267
tional	-10.227
▁fixed	-10.2299
well	-10.2306
▁carefully	-10.2317
▁tall	-10.2352
▁damaged	-10.2364
▁african	-10.2372
▁eaten	-10.2383
▁pole	-10.2385
▁marie	-10.2412
▁cloth	-10.242
▁cent	-10.2423
▁uncle	-10.2424
▁pap	-10.2427
▁abandoned	-10.243
▁diploma	-10.243
▁memorial	-10.243
▁sculpture	-10.243
▁temporarily	-10.243
▁client	-10.243
▁credit	-10.243
▁cinema	-10.243
▁snake	-10.243
▁harbor	-10.243
▁munster	-10.243
▁website	-10.243
▁dropped	-10.243
▁nazi	-10.243
▁reign	-10.243
▁apprenticeship	-10.243
▁opposition	-10.243
▁solid	-10.2432
astic	-10.2432
▁workshop	-10.2433
▁guess	-10.2433
▁wound	-10.2434
▁fold	-10.2437
▁subsidi	-10.2437
ologist	-10.244
▁string	-10.2441
▁stamp	-10.2446
▁lady	-10.2447
▁shall	-10.2459
▁sweden	-10.2471
▁slipp	-10.2472
▁cash	-10.2483
▁hunting	-10.2486
▁glasses	-10.2486
▁file	-10.2487
▁rad	-10.25
▁height	-10.2506
▁begin	-10.2533
▁carl	-10.2541
▁drawing	-10.2547
▁sad	-10.2549
▁concerned	-10.256
ground	-10.2562
▁initial	-10.2568
▁cheat	-10.257
▁recording	-10.2573
▁dro	-10.2595
▁nation	-10.2598
▁japan	-10.2608
▁ultimate	-10.2608
▁discipline	-10.2608
▁eagle	-10.2608
▁estimate	-10.2608
▁identical	-10.2608
▁identified	-10.2608
▁incident	-10.2608
▁occupation	-10.2608
▁philipp	-10.2608
▁phrase	-10.2608
▁presence	-10.2608
▁scratch	-10.2608
▁smartphone	-10.2608
▁britain	-10.2608
▁victory	-10.2608
▁slope	-10.2608
▁bodies	-10.2609
▁flies	-10.2609
▁monitor	-10.261
▁integrated	-10.261
▁devote	-10.2611
▁municipalities	-10.2611
▁potatoes	-10.2617
▁lift	-10.2617
▁interpretation	-10.2617
▁poly	-10.2621
▁fake	-10.2626
▁valve	-10.263
▁mister	-10.2634
▁fighting	-10.2636
▁sex	-10.2636
▁solve	-10.2654
▁enable	-10.2656
▁passion	-10.266
▁format	-10.2671
▁ol	-10.2675
▁frau	-10.2721
▁mining	-10.2757
▁existing	-10.2784
▁abbreviation	-10.279
▁ceremony	-10.279
▁executed	-10.279
▁maximum	-10.279
▁qualified	-10.279
▁railroad	-10.279
▁wurttemberg	-10.279
▁asleep	-10.279
▁parallel	-10.279
▁freelance	-10.279
▁fortress	-10.279
▁siblings	-10.279
▁pirate	-10.279
▁steep	-10.279
▁comprise	-10.2791
▁armed	-10.2793
▁korea	-10.2794
▁dramatic	-10.2794
▁hal	-10.2794
▁hence	-10.2798
▁equation	-10.2799
ight	-10.2806
▁sie	-10.2807
▁conventional	-10.2808
▁delivery	-10.2816
▁seal	-10.2826
▁declared	-10.2834
▁mai	-10.2842
poli	-10.2843
▁lib	-10.285
▁complet	-10.2856
itive	-10.2869
▁weigh	-10.2871
▁dan	-10.2887
▁toast	-10.2891
▁bath	-10.2891
▁classes	-10.2897
▁drawn	-10.2899
▁bush	-10.2901
▁swing	-10.2905
▁earl	-10.2907
▁practiced	-10.2912
▁improve	-10.2925
▁score	-10.2925
▁cave	-10.2926
▁forced	-10.297
▁consumption	-10.2975
▁habitat	-10.2975
▁response	-10.2975
▁trunk	-10.2975
▁garbage	-10.2975
▁senior	-10.2975
▁portrait	-10.2975
▁thread	-10.2975
▁regiment	-10.2976
▁mount	-10.2976
platz	-10.2978
▁secretary	-10.2987
▁encouraged	-10.2987
▁boil	-10.2991
▁representation	-10.2993
▁oven	-10.2995
enheim	-10.2996
▁albert	-10.2997
▁shore	-10.3002
▁angle	-10.3012
▁distinguished	-10.3015
▁johannes	-10.3018
▁southwest	-10.3018
▁secured	-10.3018
▁kro	-10.3019
▁confirmed	-10.302
▁boiler	-10.3031
▁accused	-10.3037
jan	-10.3044
low	-10.3047
▁agreed	-10.306
mund	-10.3077
▁interpret	-10.3079
▁rap	-10.312
▁leon	-10.312
▁demo	-10.3125
▁evaluat	-10.3154
▁argument	-10.3164
▁engaged	-10.3164
▁imagine	-10.3164
▁knife	-10.3164
▁medieval	-10.3164
▁unusual	-10.3164
▁torture	-10.3164
▁gottingen	-10.3164
▁baking	-10.3165
▁plot	-10.3165
▁debut	-10.3165
▁engel	-10.3171
▁gain	-10.3175
▁slid	-10.3178
▁bigger	-10.3178
▁atmosphere	-10.3183
▁combined	-10.3193
▁missed	-10.3198
▁soft	-10.3198
▁deco	-10.3207
▁observed	-10.3229
ville	-10.3233
▁cul	-10.3249
hand	-10.3268
▁mental	-10.3291
▁arrive	-10.3306
▁surprise	-10.3306
▁northeast	-10.333
▁fift	-10.3354
▁advisor	-10.3356
▁efficiency	-10.3356
▁excellen	-10.3356
▁exposed	-10.3356
▁significance	-10.3356
▁thereafter	-10.3356
▁disturb	-10.3356
▁wagner	-10.3356
▁promotion	-10.3356
▁afternoon	-10.3356
▁stefan	-10.3357
▁tough	-10.3357
▁dishes	-10.3357
▁backwards	-10.3357
▁farming	-10.3358
▁minim	-10.336
▁frei	-10.3362
▁reader	-10.3365
▁controlled	-10.3365
▁effective	-10.3368
▁extra	-10.3402
▁hip	-10.3404
▁reache	-10.3405
uous	-10.3406
▁scored	-10.3409
▁indicated	-10.3424
win	-10.3428
▁dur	-10.3444
▁profession	-10.3458
▁journal	-10.3472
▁reject	-10.3477
▁nie	-10.3479
▁climbing	-10.3492
▁ji	-10.3495
rising	-10.35
friend	-10.352
▁wire	-10.3542
▁mono	-10.3544
▁proceed	-10.355
▁absorb	-10.3552
necessarily	-10.3552
▁accompanied	-10.3552
▁augsburg	-10.3552
▁mediterranean	-10.3552
▁populated	-10.3552
▁injuries	-10.3552
▁therapy	-10.3553
▁plum	-10.3553
▁illness	-10.3553
▁birthday	-10.3553
box	-10.3557
▁dumb	-10.3564
▁considerable	-10.3567
▁jack	-10.3568
▁stir	-10.3584
▁prohibited	-10.3594
▁dense	-10.3601
▁constantly	-10.3626
▁separately	-10.366
▁mention	-10.3678
▁advance	-10.3702
▁collected	-10.3707
ault	-10.3713
▁surely	-10.3717
▁tear	-10.3726
▁privately	-10.3732
▁aggressive	-10.3752
▁educated	-10.3752
▁infantry	-10.3752
▁neglect	-10.3752
▁nervous	-10.3752
▁pleasure	-10.3752
▁vacuum	-10.3752
▁widespread	-10.3752
▁illegal	-10.3752
▁brazil	-10.3752
▁retired	-10.3752
▁funeral	-10.3753
▁behave	-10.3753
▁fiction	-10.3753
▁tomato	-10.3753
▁lyric	-10.3753
▁eighteen	-10.3753
▁mineral	-10.3754
term	-10.3755
▁deutsche	-10.3755
▁aware	-10.3755
▁rapid	-10.3756
▁leadership	-10.3758
▁slim	-10.3758
▁crash	-10.3762
▁olive	-10.3762
▁altar	-10.3762
▁worst	-10.3763
▁grape	-10.3763
▁grandma	-10.3765
▁seventy	-10.3768
▁reformation	-10.3771
▁navy	-10.3775
▁arrested	-10.379
▁rein	-10.3799
▁properly	-10.3801
▁lecturer	-10.3802
▁graz	-10.3805
kow	-10.3809
▁becoming	-10.3825
▁val	-10.383
▁ego	-10.3832
▁successes	-10.3848
▁bowl	-10.3857
▁businesses	-10.3864
hard	-10.3865
▁construct	-10.3871
▁dar	-10.3879
▁extend	-10.3881
▁fail	-10.3892
▁bond	-10.394
water	-10.3954
▁autonomous	-10.3957
▁celebrated	-10.3957
▁confess	-10.3957
▁congress	-10.3957
▁delicious	-10.3957
▁executive	-10.3957
▁october	-10.3957
▁password	-10.3957
▁qualification	-10.3957
▁telephone	-10.3957
▁ignore	-10.3957
▁welcome	-10.3957
▁curious	-10.3957
▁hardware	-10.3957
▁literally	-10.3957
▁vacation	-10.3957
▁width	-10.3957
▁shield	-10.3957
▁nineteen	-10.3957
▁saving	-10.3957
▁violin	-10.3957
▁amateur	-10.3957
▁hiking	-10.3957
▁muller	-10.3957
▁moderate	-10.3957
▁mood	-10.3958
▁borrow	-10.3959
▁operator	-10.396
▁fault	-10.396
▁admitted	-10.3965
▁archive	-10.3966
▁radiation	-10.3969
▁treatment	-10.397
▁socialism	-10.3972
▁versa	-10.3987
▁hunt	-10.399
coming	-10.4002
▁math	-10.4013
▁delivered	-10.4014
▁vary	-10.4023
▁zo	-10.4026
▁tub	-10.4053
▁loudly	-10.4054
▁suffering	-10.4056
▁healthy	-10.4062
▁alb	-10.408
▁emil	-10.4081
bahn	-10.4099
▁fighter	-10.4124
▁recover	-10.4127
▁sam	-10.4127
break	-10.4132
right	-10.4133
▁zoo	-10.4154
▁parent	-10.4154
▁fate	-10.4158
gau	-10.4163
▁whisper	-10.4165
▁approval	-10.4165
▁certificate	-10.4165
▁communist	-10.4165
▁convince	-10.4165
▁exercise	-10.4165
▁expansion	-10.4165
▁gustav	-10.4165
▁hannover	-10.4165
▁merchant	-10.4165
▁netherlands	-10.4165
▁purchase	-10.4165
▁rudolf	-10.4165
▁afford	-10.4165
▁external	-10.4165
▁monday	-10.4165
▁visual	-10.4165
▁palace	-10.4165
▁plug	-10.4165
▁false	-10.4165
▁physics	-10.4165
▁awake	-10.4165
▁hollow	-10.4166
▁classification	-10.417
▁occurred	-10.417
▁observation	-10.4173
▁venu	-10.4174
▁blade	-10.4178
▁plai	-10.4182
▁prior	-10.4185
▁gang	-10.4189
▁invited	-10.4207
bell	-10.4212
kirche	-10.4245
▁interpreted	-10.425
rank	-10.4321
▁bark	-10.4323
▁hermann	-10.433
▁moor	-10.4341
bro	-10.4342
▁dispos	-10.4351
▁gap	-10.4361
▁weapon	-10.4371
▁protest	-10.4375
▁acoustic	-10.4378
▁centuries	-10.4378
▁cigarette	-10.4378
▁circumstances	-10.4378
▁domestic	-10.4378
▁enormous	-10.4378
▁mirror	-10.4378
▁resolution	-10.4378
▁subordinate	-10.4378
▁syndrome	-10.4378
▁terror	-10.4378
▁yourselves	-10.4378
▁athlete	-10.4378
▁grammar	-10.4378
▁spaghetti	-10.4378
▁uniform	-10.4378
▁intensive	-10.4378
▁muscle	-10.4378
▁cruise	-10.4378
▁motivat	-10.4378
▁evil	-10.4378
▁wagon	-10.4378
▁exceed	-10.4378
▁permitted	-10.438
▁input	-10.4381
▁remarkable	-10.4385
band	-10.4386
▁specialized	-10.4394
▁fox	-10.4394
▁angeles	-10.4395
▁passage	-10.4396
▁expl	-10.4407
▁ferry	-10.4409
flow	-10.441
▁dirty	-10.4412
▁generated	-10.4414
▁criticized	-10.4414
▁examined	-10.4415
▁setting	-10.4421
▁strengthen	-10.4423
neck	-10.4442
▁taxi	-10.4462
▁breeding	-10.4467
phon	-10.4483
witz	-10.4488
▁parliamentar	-10.4492
▁secure	-10.4545
bank	-10.4563
▁alter	-10.4565
▁advertise	-10.4591
▁category	-10.4595
▁colloquial	-10.4595
▁concentrate	-10.4595
▁conservative	-10.4595
▁cylinder	-10.4595
▁decrease	-10.4595
▁desperate	-10.4595
▁elaborate	-10.4595
▁employment	-10.4595
▁encounter	-10.4595
▁evangelical	-10.4595
▁francis	-10.4595
▁frequency	-10.4595
▁gradually	-10.4595
▁intelligence	-10.4595
▁thieves	-10.4595
▁voltage	-10.4595
▁excited	-10.4595
▁servant	-10.4595
▁jurgen	-10.4595
▁patron	-10.4595
▁quant	-10.4595
▁beauty	-10.4595
▁firm	-10.4595
▁pacific	-10.4595
▁antenna	-10.4595
▁nerve	-10.4595
▁ensure	-10.4597
▁elector	-10.4599
▁burial	-10.4601
▁slic	-10.4601
▁preparation	-10.4602
▁coins	-10.4605
▁james	-10.4622
▁shade	-10.4633
▁kiel	-10.4634
▁spur	-10.4638
▁pose	-10.4652
▁researchers	-10.4657
▁rebel	-10.4668
▁mast	-10.4687
▁lent	-10.4694
▁laz	-10.4696
▁traumat	-10.4711
▁angel	-10.4715
▁buch	-10.4724
▁observ	-10.4732
▁establish	-10.4737
lude	-10.4744
▁arab	-10.4766
▁equat	-10.4807
▁impress	-10.4807
▁consequent	-10.4817
▁embarrass	-10.4817
▁comprehensive	-10.4817
▁deployed	-10.4817
▁joachim	-10.4817
▁politician	-10.4817
▁possibly	-10.4817
▁rebuilt	-10.4817
▁scatter	-10.4817
▁selection	-10.4817
▁wolfgang	-10.4817
▁abbey	-10.4817
▁ceiling	-10.4817
▁variant	-10.4817
▁zealand	-10.4817
▁liberal	-10.4817
▁entry	-10.4818
▁mouse	-10.4818
▁golf	-10.4818
▁happiness	-10.4818
▁banned	-10.4819
▁shaft	-10.4819
▁tiny	-10.482
▁drag	-10.4821
▁establishment	-10.4822
▁ginger	-10.4822
▁aachen	-10.4822
▁grandpa	-10.4824
▁charts	-10.4825
▁manufactured	-10.4833
▁rumor	-10.4858
charging	-10.486
▁sixth	-10.487
▁calm	-10.4876
▁belt	-10.488
▁implemented	-10.488
▁melt	-10.4889
▁santa	-10.4904
▁pf	-10.4924
▁hunter	-10.495
▁shake	-10.4965
▁affect	-10.4969
▁sale	-10.4985
enstein	-10.5006
play	-10.5016
▁mile	-10.5024
pleasant	-10.5045
▁aluminum	-10.5045
▁anniversary	-10.5045
▁concentration	-10.5045
▁demonstrate	-10.5045
▁ingredient	-10.5045
▁psychology	-10.5045
▁respond	-10.5045
▁sacrific	-10.5045
▁synonym	-10.5045
▁thirteen	-10.5045
▁fragment	-10.5045
▁indicator	-10.5045
▁advocate	-10.5045
▁imagination	-10.5045
▁shadow	-10.5045
▁indication	-10.5045
▁scholar	-10.5045
▁pupil	-10.5045
▁sword	-10.5045
▁stink	-10.5045
▁weimar	-10.5045
▁crisis	-10.5045
▁delay	-10.5045
▁dried	-10.5046
▁rescue	-10.5046
▁crook	-10.5046
▁index	-10.5046
▁invented	-10.5049
▁assess	-10.5049
▁radical	-10.5049
▁nearby	-10.5052
▁hype	-10.5054
▁rush	-10.5063
▁investigation	-10.5064
▁rocket	-10.5067
bruck	-10.5073
▁armor	-10.5074
▁poland	-10.5078
▁continuously	-10.5081
▁allerg	-10.5083
▁proportion	-10.5085
▁recovery	-10.5087
▁refused	-10.5087
▁boxes	-10.5096
▁trailer	-10.5114
▁seeds	-10.5114
▁dust	-10.5133
lich	-10.5134
▁graf	-10.5152
▁lamb	-10.5156
▁wu	-10.5188
▁ost	-10.5208
▁compos	-10.5236
▁import	-10.5273
▁centimeters	-10.5277
▁circuit	-10.5277
▁criteria	-10.5277
▁danube	-10.5277
▁deputy	-10.5277
▁employer	-10.5277
▁facade	-10.5277
▁infection	-10.5277
▁inhabited	-10.5277
▁navigation	-10.5277
▁portuguese	-10.5277
▁substitute	-10.5277
▁draft	-10.5277
▁pursued	-10.5277
▁recipe	-10.5277
▁tyrol	-10.5277
schaft	-10.5277
▁cabinet	-10.5277
▁century	-10.5277
▁worldwide	-10.5277
▁mobile	-10.5277
▁existence	-10.5277
▁pianist	-10.5277
▁crucial	-10.5277
▁kreuz	-10.5277
▁harvest	-10.5277
▁resort	-10.5277
▁extent	-10.5277
▁copies	-10.5277
▁altitude	-10.5277
▁crawl	-10.5278
▁werner	-10.5278
▁comic	-10.5278
▁trend	-10.5278
▁dozen	-10.528
▁adventure	-10.528
▁courtyard	-10.5281
▁glad	-10.5282
▁pepper	-10.5283
▁vocal	-10.5286
upon	-10.5286
▁giant	-10.5289
▁trash	-10.5289
▁duty	-10.5294
rose	-10.5297
▁laser	-10.5301
▁mason	-10.5302
▁hugo	-10.5305
▁doctorate	-10.5308
▁roughly	-10.5314
▁ripe	-10.5316
▁arc	-10.5324
▁alps	-10.5326
meister	-10.5336
▁tick	-10.5338
▁bench	-10.534
lena	-10.5375
▁brave	-10.5402
▁accord	-10.545
▁continent	-10.5462
iness	-10.5464
▁extract	-10.5472
▁dirt	-10.548
hop	-10.5494
▁commit	-10.5511
▁democracy	-10.5515
▁dissolved	-10.5515
▁eliminated	-10.5515
▁enterprise	-10.5515
▁jurisdiction	-10.5515
▁konrad	-10.5515
▁luxembourg	-10.5515
▁mathematics	-10.5515
▁mexico	-10.5515
▁motorcycle	-10.5515
▁preliminar	-10.5515
▁salzburg	-10.5515
▁september	-10.5515
▁thoroughly	-10.5515
▁compound	-10.5515
▁explanation	-10.5515
▁fashion	-10.5515
▁somebody	-10.5515
▁disgust	-10.5515
▁throne	-10.5515
▁frog	-10.5515
▁injury	-10.5515
▁sparse	-10.5515
▁honey	-10.5515
▁ninth	-10.5515
▁carpet	-10.5516
▁shipping	-10.5516
▁barrier	-10.5516
▁reverse	-10.5516
▁canada	-10.5517
▁tennis	-10.5517
▁presum	-10.5517
▁consul	-10.5518
▁consol	-10.5519
▁garage	-10.5522
▁fluid	-10.5522
▁reconstruction	-10.5522
▁dragon	-10.5523
▁arabic	-10.5528
▁highlight	-10.5528
▁charter	-10.5529
▁gender	-10.5531
▁airline	-10.5533
▁romantic	-10.5533
▁oak	-10.5545
oxide	-10.5547
▁runner	-10.5548
maker	-10.5553
▁sommer	-10.5555
gard	-10.5558
▁solved	-10.5583
▁rub	-10.5595
▁nich	-10.5621
▁baron	-10.5668
▁pope	-10.5672
▁frequent	-10.5718
point	-10.5723
▁continu	-10.5734
▁basketball	-10.5759
▁capacity	-10.5759
▁execution	-10.5759
▁gymnastics	-10.5759
▁illustration	-10.5759
▁mecklenburg	-10.5759
▁possibilities	-10.5759
▁pseudonym	-10.5759
▁reservoir	-10.5759
▁scissors	-10.5759
▁skeleton	-10.5759
▁wednesday	-10.5759
▁assistance	-10.5759
▁diverse	-10.5759
▁throat	-10.5759
▁turkish	-10.5759
▁combat	-10.5759
▁ghost	-10.5759
▁stimula	-10.5759
▁chancellor	-10.5759
▁airplane	-10.5759
▁suburb	-10.5759
▁gallery	-10.5759
▁motif	-10.5759
▁density	-10.5759
▁senate	-10.576
▁denied	-10.576
▁clinic	-10.5761
▁dependent	-10.5761
▁confusion	-10.5762
▁fellow	-10.5767
▁extraordinary	-10.5767
▁determin	-10.5767
▁salad	-10.5769
▁hammer	-10.577
▁tribe	-10.5777
▁nave	-10.5777
▁basement	-10.5781
▁popularity	-10.5783
▁attributed	-10.5791
ladder	-10.5795
▁findings	-10.5796
plan	-10.5811
▁palm	-10.5812
▁holiday	-10.5819
▁advanced	-10.5821
▁soldier	-10.5824
▁decid	-10.583
▁horn	-10.5831
mination	-10.588
▁rie	-10.5883
▁mechanical	-10.5895
▁scal	-10.595
▁obvious	-10.5968
▁digit	-10.5968
stream	-10.5976
▁advent	-10.6009
▁bankrupt	-10.6009
▁dynasty	-10.6009
▁efficient	-10.6009
▁goalkeeper	-10.6009
▁pronounce	-10.6009
▁supplement	-10.6009
▁suspension	-10.6009
▁thuringia	-10.6009
▁comparable	-10.6009
▁legislati	-10.6009
▁chapter	-10.6009
▁segment	-10.6009
▁parcel	-10.6009
▁architectural	-10.6009
▁cattle	-10.6009
▁repeatedly	-10.601
▁grim	-10.601
▁programming	-10.601
▁psycho	-10.6011
▁vision	-10.6013
▁orbit	-10.6014
▁distinction	-10.6014
▁baltic	-10.6015
▁grun	-10.6016
▁lutheran	-10.6016
▁twin	-10.6016
▁voluntarily	-10.6016
▁fiber	-10.6018
▁hohen	-10.6028
▁suggestion	-10.603
▁decorated	-10.603
▁moral	-10.6031
▁luther	-10.6031
▁payment	-10.6037
▁correction	-10.604
▁forestry	-10.6043
▁accuse	-10.6045
▁nail	-10.6052
▁peel	-10.6075
▁improved	-10.6078
▁chile	-10.6123
▁nau	-10.6173
▁divid	-10.6192
▁gravel	-10.6206
mpression	-10.6215
▁invite	-10.6218
field	-10.6229
▁magnet	-10.6254
▁hydro	-10.6264
▁introduct	-10.6265
▁territori	-10.6265
▁demolition	-10.6265
▁elisabeth	-10.6265
▁facebook	-10.6265
▁interaction	-10.6265
▁jersey	-10.6265
▁karlsruhe	-10.6265
▁moscow	-10.6265
▁opportunities	-10.6265
▁opportunity	-10.6265
▁peninsula	-10.6265
▁resemble	-10.6265
▁sequence	-10.6265
▁symptoms	-10.6265
▁triangle	-10.6265
▁unconscious	-10.6265
▁voluntary	-10.6265
▁regulate	-10.6266
▁suicide	-10.6266
▁underneath	-10.6266
▁adolf	-10.6266
▁islamic	-10.6266
▁penalty	-10.6266
▁rabbi	-10.6266
▁temple	-10.6266
▁frost	-10.6266
▁summit	-10.6266
▁pioneer	-10.6266
▁spoon	-10.6266
▁reliable	-10.6266
▁canadian	-10.6266
▁breast	-10.6266
▁grill	-10.6266
▁truly	-10.6266
▁bundestag	-10.6266
▁smart	-10.6266
▁expectations	-10.6267
▁ireland	-10.6267
▁intense	-10.6267
▁sample	-10.6267
▁consistent	-10.6268
▁bounc	-10.6268
▁arrangement	-10.6268
▁sustainable	-10.6269
▁klein	-10.627
▁brut	-10.6272
▁genetic	-10.6272
▁pause	-10.6273
▁glow	-10.6274
▁collective	-10.6274
▁ridge	-10.6276
▁adj	-10.6277
▁elder	-10.628
▁noticeable	-10.6291
▁insert	-10.6299
▁questionable	-10.63
▁update	-10.6301
▁seventh	-10.6311
▁float	-10.6318
▁marine	-10.6318
▁linear	-10.6334
▁tang	-10.6338
▁ferr	-10.6355
▁cage	-10.6367
▁pine	-10.6382
▁scr	-10.6384
▁continuous	-10.649
▁georgia	-10.6491
craft	-10.6496
▁rough	-10.6511
▁mala	-10.6525
▁accurate	-10.6529
▁anonymous	-10.6529
▁blossom	-10.6529
▁cultivated	-10.6529
▁definition	-10.6529
▁dortmund	-10.6529
▁grandparents	-10.6529
▁intelligent	-10.6529
▁norwegian	-10.6529
▁november	-10.6529
▁schmidt	-10.6529
▁schneider	-10.6529
▁signature	-10.6529
▁supervisor	-10.6529
▁neutral	-10.6529
▁spiritual	-10.6529
▁thumb	-10.6529
▁alfred	-10.6529
▁josef	-10.6529
▁lubeck	-10.6529
▁analyze	-10.6529
▁louis	-10.6529
▁vector	-10.6529
▁dancing	-10.6529
▁historian	-10.6529
▁goethe	-10.6529
▁weird	-10.653
▁particle	-10.653
▁rotation	-10.653
▁duct	-10.653
▁pink	-10.653
▁mask	-10.6533
▁alternat	-10.6534
violet	-10.6534
▁sheep	-10.6535
▁tension	-10.6535
▁hook	-10.6539
▁drone	-10.6541
▁muhl	-10.6544
▁items	-10.655
▁consideration	-10.6557
▁cab	-10.6564
▁losses	-10.6577
▁june	-10.6579
schedule	-10.6602
▁grade	-10.6603
scu	-10.6666
▁deliver	-10.6685
▁implement	-10.6714
▁succeed	-10.6723
▁disappear	-10.6723
▁compare	-10.6749
space	-10.677
▁encrypt	-10.6789
▁abolish	-10.6799
▁adolescent	-10.6799
▁conservation	-10.6799
▁helicopter	-10.6799
▁jakob	-10.6799
▁manufacturing	-10.6799
▁mathematical	-10.6799
▁nonsense	-10.6799
▁revenue	-10.6799
▁structural	-10.6799
▁transmission	-10.6799
▁violence	-10.6799
▁swabia	-10.6799
▁unfair	-10.6799
▁withdraw	-10.6799
▁curtain	-10.6799
▁variable	-10.6799
▁budget	-10.6799
▁retreat	-10.6799
▁pocket	-10.6799
▁capsule	-10.6799
▁optical	-10.6799
▁hunger	-10.6799
▁retain	-10.6799
▁bundes	-10.6799
▁lunch	-10.6799
▁mystery	-10.6799
▁pretend	-10.6799
▁humor	-10.6799
▁jelly	-10.68
▁linux	-10.68
▁loyal	-10.6802
▁thermal	-10.6802
▁referee	-10.6803
▁preferred	-10.6803
▁fritz	-10.6804
▁linguistic	-10.6804
▁merit	-10.6804
▁harmless	-10.6806
▁janni	-10.6808
▁skat	-10.6808
▁encryption	-10.6809
▁volcano	-10.6816
▁lemon	-10.6821
▁marburg	-10.6824
ji	-10.6838
▁fries	-10.685
▁bibl	-10.6884
stedt	-10.6898
▁kant	-10.6915
▁bang	-10.6925
▁seiz	-10.6946
leben	-10.6976
▁replac	-10.7001
▁fog	-10.7023
uction	-10.7039
▁measur	-10.7053
born	-10.7064
▁categories	-10.7077
▁divorce	-10.7077
▁forbidden	-10.7077
▁fracture	-10.7077
▁infrastructure	-10.7077
▁lieutenant	-10.7077
▁potsdam	-10.7077
▁quote	-10.7077
▁regret	-10.7077
▁sneeze	-10.7077
▁varieties	-10.7077
▁hobby	-10.7077
▁prevail	-10.7077
▁slept	-10.7077
▁dessert	-10.7077
▁influential	-10.7077
▁plaster	-10.7077
▁suprem	-10.7077
▁gesture	-10.7077
▁random	-10.7077
▁sexual	-10.7077
▁daniel	-10.7077
▁disabled	-10.7077
▁alliance	-10.7077
▁domain	-10.7077
▁bypass	-10.7078
▁turtle	-10.7078
▁crypt	-10.7079
▁denmark	-10.7079
▁poisonous	-10.7079
▁dialogue	-10.708
▁mild	-10.708
▁toxic	-10.7081
▁seminar	-10.7082
▁revis	-10.7082
▁priority	-10.7082
▁rattle	-10.7082
▁deadline	-10.7085
▁plateau	-10.7085
▁ulm	-10.7085
▁systematic	-10.7087
▁flesh	-10.7087
▁arise	-10.7092
▁fool	-10.7093
▁fame	-10.7094
▁upright	-10.7098
▁govern	-10.7098
▁delight	-10.71
▁worm	-10.7147
▁gaze	-10.7151
alogue	-10.7158
▁tide	-10.7171
schule	-10.7215
▁sang	-10.7216
holz	-10.7232
▁obtain	-10.7286
▁hike	-10.7312
▁examine	-10.7326
wood	-10.733
power	-10.7331
▁yu	-10.7337
tally	-10.7342
stand	-10.7347
pole	-10.736
▁assumption	-10.7362
▁belgium	-10.7362
▁chemistry	-10.7362
▁demolished	-10.7362
▁elevator	-10.7362
▁explosive	-10.7362
▁february	-10.7362
▁furniture	-10.7362
▁guarantee	-10.7362
▁heidelberg	-10.7362
▁illustrate	-10.7362
▁initiated	-10.7362
▁manuscript	-10.7362
▁negotiations	-10.7362
▁renowned	-10.7362
▁retirement	-10.7362
▁schleswig	-10.7362
▁struggle	-10.7362
▁suspended	-10.7362
▁temporary	-10.7362
▁thursday	-10.7362
▁vegetarian	-10.7362
▁displac	-10.7362
▁exciting	-10.7362
▁intervention	-10.7362
▁pizza	-10.7362
▁download	-10.7362
▁schiller	-10.7362
▁discrete	-10.7362
▁einstein	-10.7362
▁google	-10.7362
▁mixture	-10.7362
▁abroad	-10.7362
▁clown	-10.7363
▁renew	-10.7363
▁cherry	-10.7363
▁clerk	-10.7363
▁stolen	-10.7363
▁milan	-10.7363
▁blank	-10.7363
▁edible	-10.7363
▁friday	-10.7363
▁pinch	-10.7364
▁virus	-10.7364
▁reduction	-10.7366
▁mandate	-10.7366
▁airfield	-10.7366
▁basin	-10.7367
▁burden	-10.7367
▁egyptian	-10.7367
▁mamm	-10.7369
▁ownership	-10.7369
▁friendship	-10.7371
▁kohl	-10.7373
▁warned	-10.7378
▁heinz	-10.7381
▁aunt	-10.7381
▁mortal	-10.7382
▁cookies	-10.7383
▁invest	-10.7385
▁sink	-10.7387
▁erna	-10.7388
▁chef	-10.7401
nkel	-10.7407
cast	-10.7413
▁chop	-10.7415
▁prepar	-10.7433
▁curse	-10.7464
ngest	-10.7495
fusion	-10.7537
▁lend	-10.759
▁fix	-10.7602
▁generate	-10.7606
▁sudden	-10.7615
▁derive	-10.7621
course	-10.7639
▁egypt	-10.7651
▁abstract	-10.7657
▁algorithm	-10.7657
▁amazon	-10.7657
▁announcement	-10.7657
▁curiosity	-10.7657
▁excluded	-10.7657
▁ferdinand	-10.7657
▁grammatical	-10.7657
▁interface	-10.7657
▁metropoli	-10.7657
▁narrator	-10.7657
▁psychological	-10.7657
▁sensitive	-10.7657
▁florida	-10.7657
▁helmet	-10.7657
▁surrender	-10.7657
▁margaret	-10.7657
▁possesse	-10.7657
▁prague	-10.7657
▁translator	-10.7657
▁fossil	-10.7657
▁swamp	-10.7657
▁lorenz	-10.7657
▁subtitl	-10.7657
▁widow	-10.7657
▁greeting	-10.7657
▁pillar	-10.7657
▁portray	-10.7657
▁terribl	-10.7657
▁chalk	-10.7657
▁donkey	-10.7657
▁angry	-10.7658
▁carrot	-10.7658
▁queue	-10.7658
▁irish	-10.7659
▁trench	-10.7659
▁shark	-10.7663
▁export	-10.7664
▁assert	-10.7664
▁biological	-10.7666
▁attractive	-10.7668
▁salv	-10.7671
▁wagg	-10.7672
▁documentary	-10.7673
▁genus	-10.7679
gitte	-10.7691
▁moni	-10.7701
▁collector	-10.7705
▁pace	-10.7747
pell	-10.7796
grid	-10.7833
▁designat	-10.7849
▁syl	-10.7849
stairs	-10.7864
▁deposit	-10.7918
▁immediate	-10.7918
▁refuse	-10.7938
▁volcan	-10.794
▁squa	-10.7944
▁accompany	-10.796
▁bachelor	-10.796
▁overwhelm	-10.796
▁symphon	-10.796
satisfied	-10.796
▁assignment	-10.796
▁columbia	-10.796
▁conscience	-10.796
▁engagement	-10.796
▁ensemble	-10.796
▁franconia	-10.796
▁hometown	-10.796
▁punished	-10.796
▁societies	-10.796
▁suspicious	-10.796
▁swallow	-10.796
▁wurzburg	-10.796
▁dwarf	-10.796
▁emotional	-10.796
▁fabric	-10.796
▁complement	-10.796
▁diamond	-10.796
▁matrix	-10.796
▁landlord	-10.796
▁turkey	-10.796
▁melody	-10.796
▁ultra	-10.796
▁leather	-10.796
▁heritage	-10.796
▁fifteen	-10.796
▁kaiser	-10.796
▁ladies	-10.796
▁personnel	-10.796
▁scrap	-10.796
▁bathroom	-10.796
▁strawberr	-10.7961
▁quantities	-10.7961
▁vertical	-10.7962
▁soap	-10.7962
▁banana	-10.7962
▁resistant	-10.7962
▁stalk	-10.7963
▁insult	-10.7963
▁tractor	-10.7964
▁integration	-10.7968
▁beforehand	-10.7968
▁steak	-10.797
▁classified	-10.797
▁gunther	-10.7971
licate	-10.7973
▁insight	-10.7974
▁evaluation	-10.7976
▁implie	-10.7978
▁stability	-10.7979
enthal	-10.8017
finite	-10.8032
weiler	-10.805
▁symbolize	-10.8096
▁mechanic	-10.81
zig	-10.8122
▁consequence	-10.8149
▁styl	-10.8154
▁baker	-10.8168
▁confirm	-10.8196
▁declar	-10.8196
▁expand	-10.8196
▁poison	-10.8269
▁physi	-10.8271
▁distract	-10.8272
▁tuesday	-10.8272
▁acknowledge	-10.8272
▁bayreuth	-10.8272
▁calculation	-10.8272
▁destruction	-10.8272
▁fireplace	-10.8272
▁horror	-10.8272
▁independence	-10.8272
▁membrane	-10.8272
▁monarch	-10.8272
▁orthodox	-10.8272
▁pharmaceutic	-10.8272
▁renovation	-10.8272
▁spectator	-10.8272
▁virgin	-10.8272
▁contrary	-10.8272
▁medication	-10.8272
▁mozilla	-10.8272
▁powder	-10.8272
▁schwarz	-10.8272
▁secular	-10.8272
▁terrace	-10.8272
nforcement	-10.8272
▁miracle	-10.8272
▁theoretical	-10.8272
▁pencil	-10.8272
▁feather	-10.8272
▁cardinal	-10.8272
▁premier	-10.8272
▁spider	-10.8272
▁saturday	-10.8272
▁silesia	-10.8273
▁stylistic	-10.8273
▁contest	-10.8273
▁trading	-10.8274
▁essen	-10.8275
▁holstein	-10.8275
▁participation	-10.8276
▁jacket	-10.8278
▁automatic	-10.8278
▁rival	-10.8281
▁java	-10.8281
▁simon	-10.8284
▁clip	-10.8289
▁eich	-10.831
▁teach	-10.8311
▁chant	-10.8316
▁relie	-10.8335
▁hatch	-10.8357
hipped	-10.8382
cute	-10.8412
▁neuro	-10.8522
▁criticize	-10.8548
itude	-10.855
acent	-10.8562
▁integr	-10.8583
▁accent	-10.859
▁gentle	-10.8594
▁immun	-10.8595
▁contradict	-10.8595
▁principal	-10.8595
▁argentina	-10.8595
▁confident	-10.8595
▁convincing	-10.8595
▁erfurt	-10.8595
▁evolution	-10.8595
▁extinct	-10.8595
▁grandmother	-10.8595
▁impatient	-10.8595
▁libraries	-10.8595
▁majesty	-10.8595
▁perception	-10.8595
▁recreation	-10.8595
▁relegation	-10.8595
▁reputation	-10.8595
▁scandal	-10.8595
▁sebastian	-10.8595
▁striking	-10.8595
▁supplier	-10.8595
▁terrain	-10.8595
▁underestimate	-10.8595
▁wikipedia	-10.8595
▁colonial	-10.8595
▁compensation	-10.8595
▁cough	-10.8595
▁innovation	-10.8595
▁moderator	-10.8595
▁observatory	-10.8595
▁separation	-10.8595
▁disorder	-10.8595
▁revenge	-10.8595
▁sneak	-10.8595
▁perceive	-10.8595
▁injured	-10.8595
▁optim	-10.8595
▁superior	-10.8595
▁estonia	-10.8595
▁shaking	-10.8595
▁achievements	-10.8595
▁frisian	-10.8595
▁bernhard	-10.8596
▁betray	-10.8597
▁serbia	-10.8597
▁purple	-10.8597
▁axis	-10.8598
▁kramer	-10.8599
▁collaboration	-10.8599
▁bohm	-10.8599
▁textile	-10.8602
▁athens	-10.8602
▁nieder	-10.8602
▁implementation	-10.8606
▁massage	-10.8607
▁specifically	-10.8608
▁objective	-10.861
▁exile	-10.8616
▁schult	-10.8619
▁sailor	-10.8643
position	-10.8646
roscop	-10.872
hawk	-10.8746
▁combine	-10.8878
▁apparent	-10.8887
worth	-10.8895
florescence	-10.8928
▁captured	-10.8928
▁chimney	-10.8928
▁compromise	-10.8928
▁corporation	-10.8928
▁corridor	-10.8928
▁creativity	-10.8928
▁disagree	-10.8928
▁disappointed	-10.8928
▁fertile	-10.8928
▁fulfill	-10.8928
▁hollywood	-10.8928
▁hungarian	-10.8928
▁nephew	-10.8928
▁nickname	-10.8928
▁renaissance	-10.8928
▁reproduce	-10.8928
▁restrictions	-10.8928
▁slalom	-10.8928
▁surprising	-10.8928
▁uncertain	-10.8928
▁defect	-10.8928
▁enemies	-10.8928
▁peasant	-10.8928
▁spontaneous	-10.8928
▁squadron	-10.8928
▁tributar	-10.8928
▁volks	-10.8928
▁creek	-10.8928
▁slogan	-10.8928
▁module	-10.8928
▁robber	-10.8928
▁greece	-10.8928
▁smith	-10.8928
▁wreck	-10.8928
▁retail	-10.8928
▁inscription	-10.8928
▁drift	-10.8928
▁bulb	-10.8928
▁couch	-10.8928
▁duchy	-10.8928
▁jacob	-10.8928
▁plent	-10.8928
▁witch	-10.8928
▁alleged	-10.8929
▁oscar	-10.8929
▁competent	-10.8929
▁scottish	-10.8929
▁neighborhood	-10.893
▁tuning	-10.8931
▁shy	-10.8931
▁jones	-10.8931
▁sought	-10.8932
▁danish	-10.8934
▁interval	-10.8935
▁norway	-10.8936
▁dominated	-10.8937
▁ottoman	-10.8937
▁weiss	-10.8959
poo	-10.8969
▁custom	-10.9064
▁giga	-10.9099
trogen	-10.9108
abea	-10.9145
▁prussia	-10.9214
junction	-10.9273
▁alphabet	-10.9273
▁breakthrough	-10.9273
▁chronicle	-10.9273
▁confidence	-10.9273
▁corruption	-10.9273
▁fertilize	-10.9273
▁frequencies	-10.9273
▁identify	-10.9273
▁irritate	-10.9273
▁phenomenon	-10.9273
▁provision	-10.9273
▁renovated	-10.9273
▁reservation	-10.9273
▁screwdriver	-10.9273
▁template	-10.9273
▁unbelievable	-10.9273
▁wiesbaden	-10.9273
▁anywhere	-10.9273
▁balcony	-10.9273
▁muslim	-10.9273
▁poverty	-10.9273
▁habits	-10.9273
▁laundry	-10.9273
▁midfield	-10.9273
▁portugal	-10.9273
▁replacement	-10.9273
▁nominated	-10.9273
▁sensation	-10.9273
▁fulda	-10.9273
▁schwerin	-10.9273
▁kassel	-10.9273
▁colony	-10.9273
▁outdoor	-10.9273
▁attitude	-10.9273
▁gerhard	-10.9274
▁junk	-10.9275
▁departure	-10.9275
ybody	-10.9275
▁moped	-10.9276
statt	-10.9276
▁jackson	-10.9277
▁assessment	-10.9279
▁vault	-10.928
▁partnership	-10.9281
▁cannon	-10.9283
▁upset	-10.929
▁font	-10.9292
▁productive	-10.9296
issa	-10.9346
schau	-10.9387
media	-10.9431
▁chase	-10.9509
rough	-10.9512
▁discuss	-10.9545
▁prohibit	-10.9554
▁distinguish	-10.9554
▁kilometer	-10.9555
hoff	-10.9565
▁techno	-10.9571
▁define	-10.958
▁nav	-10.9584
final	-10.96
▁reconstruct	-10.962
went	-10.9624
▁attenti	-10.9626
▁telescop	-10.963
▁wrestling	-10.963
▁archaeological	-10.963
▁champagne	-10.963
▁competitor	-10.963
▁conservatory	-10.963
▁cyclist	-10.963
▁darmstadt	-10.963
▁disadvantage	-10.963
▁eduard	-10.963
▁greifswald	-10.963
▁nuremberg	-10.963
▁occurrence	-10.963
▁pedestrian	-10.963
▁pomerania	-10.963
▁prosecutor	-10.963
▁qualify	-10.963
▁recognizable	-10.963
▁staircase	-10.963
▁supplied	-10.963
▁athletic	-10.963
▁bohemia	-10.963
▁circum	-10.963
▁conscious	-10.963
▁elegant	-10.963
▁helmut	-10.963
▁penguin	-10.963
▁wrapp	-10.963
▁database	-10.963
▁entertain	-10.963
▁scope	-10.963
▁cherries	-10.963
▁coalition	-10.963
▁balloon	-10.963
▁glove	-10.963
▁babies	-10.963
▁schnitz	-10.963
▁hanover	-10.963
▁victoria	-10.963
▁endanger	-10.963
▁spray	-10.963
▁senator	-10.963
▁croatia	-10.963
▁lodge	-10.963
▁motto	-10.9631
▁convey	-10.9631
▁refine	-10.9631
▁restored	-10.9631
▁offence	-10.9631
▁michel	-10.9631
▁fence	-10.9631
▁casual	-10.9631
▁advers	-10.9632
▁appeti	-10.9632
▁creme	-10.9633
▁diesel	-10.9633
▁moths	-10.9635
▁trainee	-10.9635
▁slate	-10.9637
▁charles	-10.9638
▁feud	-10.9639
▁beef	-10.9645
▁automat	-10.9652
▁resist	-10.9657
▁adam	-10.9686
gonal	-10.9688
▁peaceful	-10.9773
▁commen	-10.9803
patch	-10.984
▁analog	-10.989
borg	-10.993
▁wedg	-10.994
▁preserve	-10.995
fels	-10.996
founder	-10.9968
bridge	-10.9968
fortunately	-10.9991
▁communicat	-10.9993
▁carpenter	-11
▁dissertation	-11
▁ignorance	-11
▁mattress	-11
▁mexican	-11
▁packaging	-11
▁plaintiff	-11
▁psychiatr	-11
▁scotland	-11
▁sovereign	-11
▁statistics	-11
▁submarines	-11
▁upgrade	-11
▁utensils	-11
▁fantasy	-11
▁mozart	-11
▁sandwich	-11
▁unsuccessful	-11
▁typing	-11
▁decoration	-11
▁civic	-11
▁sausage	-11
▁oneself	-11
▁simson	-11
▁courage	-11
▁julius	-11
▁modified	-11
▁unlock	-11
▁twist	-11.0001
▁monster	-11.0001
▁atomic	-11.0001
▁horst	-11.0001
▁owl	-11.0001
▁tackle	-11.0001
▁motives	-11.0002
▁relay	-11.0002
▁edward	-11.0002
▁motion	-11.0002
▁pilgrimage	-11.0003
▁debate	-11.0003
▁manuel	-11.0004
▁preced	-11.0005
▁bernard	-11.0008
▁inventor	-11.0009
▁sabin	-11.0019
▁horizontal	-11.002
▁faci	-11.0048
holder	-11.0062
▁jorg	-11.0207
▁whip	-11.0212
nathan	-11.0262
▁attach	-11.0317
▁attribute	-11.0334
script	-11.0352
fried	-11.0355
burn	-11.0363
▁potato	-11.0367
▁depart	-11.038
▁oppos	-11.0383
▁immigrat	-11.0385
deficiency	-11.0385
responsibilities	-11.0385
▁albrecht	-11.0385
▁bielefeld	-11.0385
▁brilliant	-11.0385
▁bulgaria	-11.0385
▁cannibal	-11.0385
▁commemorat	-11.0385
▁competitive	-11.0385
▁december	-11.0385
▁endeavor	-11.0385
▁essays	-11.0385
▁explosion	-11.0385
▁fountain	-11.0385
▁infected	-11.0385
▁jesuit	-11.0385
▁lifestyle	-11.0385
▁limestone	-11.0385
▁oxford	-11.0385
▁pediatric	-11.0385
▁peripher	-11.0385
▁thailand	-11.0385
▁bacteria	-11.0385
▁chicago	-11.0385
▁headphones	-11.0385
▁hungary	-11.0385
▁rostock	-11.0385
▁arnold	-11.0385
▁commerce	-11.0385
▁memories	-11.0385
▁thirst	-11.0385
▁colonel	-11.0385
▁disaster	-11.0385
▁garlic	-11.0385
▁swear	-11.0385
▁clever	-11.0385
▁expertise	-11.0385
▁outstanding	-11.0385
▁survey	-11.0385
▁sensor	-11.0385
▁whale	-11.0385
▁accusations	-11.0385
▁spiral	-11.0385
trustworthy	-11.0385
▁patent	-11.0385
▁vienne	-11.0386
▁satur	-11.0386
▁relocat	-11.0386
▁shelter	-11.0386
▁explod	-11.0387
▁considerably	-11.0387
▁distinctive	-11.0387
▁jesus	-11.0388
▁gauge	-11.0389
ogram	-11.0389
▁charlie	-11.0389
▁proceedings	-11.0391
▁eisen	-11.0392
▁abuse	-11.0403
▁wonderful	-11.0407
ubb	-11.0429
▁chris	-11.047
▁remov	-11.0626
fumes	-11.0709
▁arrest	-11.0709
▁arrange	-11.073
▁assume	-11.0736
▁headquarter	-11.0756
tractable	-11.0785
▁archbishop	-11.0785
▁attorney	-11.0785
▁batteries	-11.0785
▁breslau	-11.0785
▁comparative	-11.0785
▁confront	-11.0785
▁cultivation	-11.0785
▁deceased	-11.0785
▁diagnosis	-11.0785
▁emphasize	-11.0785
▁evident	-11.0785
▁impossible	-11.0785
▁palatinate	-11.0785
▁proposal	-11.0785
▁prototype	-11.0785
▁punishment	-11.0785
▁rupture	-11.0785
▁scandinavia	-11.0785
▁sculptor	-11.0785
▁technician	-11.0785
▁teenager	-11.0785
▁timbered	-11.0785
▁transformation	-11.0785
▁transmitted	-11.0785
▁violations	-11.0785
▁virtue	-11.0785
▁carinthia	-11.0785
▁synchroni	-11.0785
▁treasure	-11.0785
▁vineyard	-11.0785
▁privatiz	-11.0785
▁spacious	-11.0785
▁binding	-11.0785
▁ritual	-11.0785
▁manfred	-11.0785
▁urgent	-11.0785
▁judicial	-11.0785
▁serving	-11.0785
▁pigeon	-11.0785
▁compact	-11.0785
▁hurry	-11.0785
▁bleach	-11.0785
▁escalat	-11.0785
currency	-11.0785
▁syria	-11.0785
▁smile	-11.0785
▁henrik	-11.0786
▁theodor	-11.0786
▁tempt	-11.0786
▁feedback	-11.0787
▁gentlemen	-11.0787
▁activat	-11.0787
▁semiconductor	-11.0787
▁fortification	-11.0788
▁framework	-11.0788
▁winning	-11.0788
▁hydrogen	-11.0788
▁erwin	-11.0788
▁tibet	-11.0788
▁plus	-11.0789
▁exert	-11.08
▁differentiate	-11.0803
▁concei	-11.0828
▁celt	-11.0849
▁pont	-11.0895
undula	-11.1067
lateral	-11.1088
▁raise	-11.1153
woman	-11.1169
▁absence	-11.1202
▁accumulat	-11.1202
▁administered	-11.1202
▁anonymity	-11.1202
▁arrondissement	-11.1202
▁braunschweig	-11.1202
▁constituency	-11.1202
▁diabetes	-11.1202
▁discontinued	-11.1202
▁discretion	-11.1202
▁diversity	-11.1202
▁enthusiastic	-11.1202
▁explicitly	-11.1202
▁financing	-11.1202
▁hemisphere	-11.1202
▁innocent	-11.1202
▁intellectual	-11.1202
▁irregular	-11.1202
▁leopold	-11.1202
▁mandatory	-11.1202
▁maneuver	-11.1202
▁mercedes	-11.1202
▁permission	-11.1202
▁postponed	-11.1202
▁receipt	-11.1202
▁refrain	-11.1202
▁regensburg	-11.1202
▁repertoire	-11.1202
▁sweep	-11.1202
▁transaction	-11.1202
▁twitch	-11.1202
▁vietnam	-11.1202
▁inevitabl	-11.1202
▁nikolaus	-11.1202
▁renamed	-11.1202
▁semester	-11.1202
▁solidarity	-11.1202
▁verdict	-11.1202
▁chords	-11.1202
▁rainbow	-11.1202
▁nicola	-11.1202
▁sociology	-11.1202
▁ethnic	-11.1202
▁cartoon	-11.1202
▁replica	-11.1202
▁tropical	-11.1202
▁rigid	-11.1202
▁magnus	-11.1202
▁pliers	-11.1202
▁reddish	-11.1202
▁tactic	-11.1202
▁margin	-11.1202
▁robin	-11.1202
▁incorporated	-11.1202
▁reinhard	-11.1202
▁stamens	-11.1202
▁invention	-11.1203
▁stopping	-11.1204
▁interloc	-11.1204
▁silk	-11.1205
▁clemen	-11.1207
▁niko	-11.1208
▁spice	-11.1216
▁deceiv	-11.1218
motive	-11.1239
▁alpin	-11.1264
▁nitr	-11.1276
western	-11.1307
spiel	-11.1335
moller	-11.1351
▁install	-11.1553
▁convention	-11.1595
▁fluctuat	-11.1636
▁acquaint	-11.1636
▁appreciate	-11.1636
▁arrival	-11.1636
▁artillery	-11.1636
▁carbohydrate	-11.1636
▁categoriz	-11.1636
▁celebration	-11.1636
▁coincidence	-11.1636
▁comrade	-11.1636
▁crocodile	-11.1636
▁defensive	-11.1636
▁depriv	-11.1636
▁diagram	-11.1636
▁inflammation	-11.1636
▁interference	-11.1636
▁intersection	-11.1636
▁migration	-11.1636
▁millennium	-11.1636
▁philosophic	-11.1636
▁pregnant	-11.1636
▁prehistoric	-11.1636
▁prescription	-11.1636
▁preservation	-11.1636
▁prominent	-11.1636
▁propaganda	-11.1636
▁rehearsal	-11.1636
▁smoking	-11.1636
▁stabilize	-11.1636
▁substantial	-11.1636
▁suspicion	-11.1636
▁ulrich	-11.1636
▁universal	-11.1636
▁unnoticed	-11.1636
▁venice	-11.1636
▁yield	-11.1636
▁laboratory	-11.1636
▁surname	-11.1636
▁utilized	-11.1636
▁valentin	-11.1636
▁victories	-11.1636
▁federation	-11.1636
▁samuel	-11.1636
▁thigh	-11.1636
▁charlotte	-11.1636
▁clarified	-11.1636
▁texas	-11.1636
▁thief	-11.1636
▁livestock	-11.1636
▁sprint	-11.1636
▁guinea	-11.1636
▁latvia	-11.1636
▁cliff	-11.1636
▁premise	-11.1636
▁toddler	-11.1636
▁nightmare	-11.1637
▁leash	-11.1637
▁session	-11.1637
▁cheerful	-11.1637
▁overcome	-11.1637
▁sirens	-11.1637
▁cement	-11.1638
▁withdrew	-11.1638
▁tasty	-11.1638
▁forgive	-11.1639
▁scrub	-11.1642
▁squir	-11.1649
▁trauma	-11.1852
▁elect	-11.1973
▁introduce	-11.2041
▁easie	-11.207
▁permit	-11.2088
▁aqua	-11.2091
▁electromagnet	-11.2091
▁reflex	-11.2091
▁accommodation	-11.2091
▁acquisition	-11.2091
▁amsterdam	-11.2091
▁applicable	-11.2091
▁applicant	-11.2091
▁boycott	-11.2091
▁cloakroom	-11.2091
▁demonstration	-11.2091
▁electrified	-11.2091
▁emphasis	-11.2091
▁enthusiasm	-11.2091
▁expense	-11.2091
▁faculty	-11.2091
▁figurative	-11.2091
▁flirt	-11.2091
▁geometric	-11.2091
▁imbalance	-11.2091
▁immigrant	-11.2091
▁inconsistencies	-11.2091
▁instructor	-11.2091
▁katharina	-11.2091
▁koblenz	-11.2091
▁magdeburg	-11.2091
▁mechanism	-11.2091
▁mercury	-11.2091
▁microwave	-11.2091
▁monkey	-11.2091
▁pharmacist	-11.2091
▁relegated	-11.2091
▁rendsburg	-11.2091
▁ribbon	-11.2091
▁simulate	-11.2091
▁symmetric	-11.2091
▁syrup	-11.2091
▁vicinity	-11.2091
▁affiliat	-11.2091
▁autumn	-11.2091
▁restricted	-11.2091
▁scanner	-11.2091
▁sigmund	-11.2091
▁exploit	-11.2091
▁surgeon	-11.2091
▁colonies	-11.2091
▁depression	-11.2091
▁bloom	-11.2091
▁indonesia	-11.2091
▁bargain	-11.2091
▁minuet	-11.2091
▁trophy	-11.2091
▁competence	-11.2091
▁satire	-11.2091
▁tamara	-11.2091
▁thrill	-11.2091
▁generous	-11.2091
▁spoil	-11.2091
▁bureau	-11.2091
▁caesar	-11.2091
▁madrid	-11.2091
▁nicole	-11.2091
▁probation	-11.2091
▁styria	-11.2091
▁rascal	-11.2092
▁argue	-11.2092
▁blond	-11.2092
▁palestin	-11.2092
▁quin	-11.2093
▁plasm	-11.2093
▁vogt	-11.2094
▁beetle	-11.2097
ophyt	-11.21
alysis	-11.2111
▁remu	-11.2116
▁snor	-11.2117
ocated	-11.2131
eastern	-11.2153
▁invasi	-11.2201
friedhof	-11.2305
▁presid	-11.232
fluent	-11.2397
piece	-11.2535
heart	-11.2537
▁horizon	-11.2542
▁democrat	-11.2555
▁pilgrim	-11.2564
▁apprentice	-11.2565
▁napoleon	-11.2567
▁sympath	-11.2567
▁abrupt	-11.2567
▁accelerated	-11.2567
▁antarctic	-11.2567
▁applause	-11.2567
▁astronomer	-11.2567
▁barracks	-11.2567
▁byzantine	-11.2567
▁celebrities	-11.2567
▁combustion	-11.2567
▁conversion	-11.2567
▁crucifix	-11.2567
▁cuddle	-11.2567
▁dinosaur	-11.2567
▁eberhard	-11.2567
▁entrepreneur	-11.2567
▁envelop	-11.2567
▁expedition	-11.2567
▁indirect	-11.2567
▁industries	-11.2567
▁intermediate	-11.2567
▁kennedy	-11.2567
▁migrant	-11.2567
▁neolithic	-11.2567
▁outskirts	-11.2567
▁patience	-11.2567
▁provincial	-11.2567
▁registration	-11.2567
▁speculation	-11.2567
▁synagogue	-11.2567
▁textbook	-11.2567
▁unhealthy	-11.2567
▁unpopular	-11.2567
▁vegetation	-11.2567
▁violent	-11.2567
▁viticulture	-11.2567
▁wrinkl	-11.2567
▁botanical	-11.2567
▁hymn	-11.2567
▁marathon	-11.2567
▁physician	-11.2567
▁hypo	-11.2567
▁inflation	-11.2567
▁schroder	-11.2567
▁alsace	-11.2567
▁knives	-11.2567
▁brush	-11.2567
▁lehmann	-11.2567
▁sniff	-11.2567
estimation	-11.2567
▁backpack	-11.2567
▁chestnut	-11.2567
▁bleeding	-11.2567
▁decent	-11.2567
▁yolk	-11.2567
▁bochum	-11.2567
▁boredom	-11.2567
▁froze	-11.2567
▁uncover	-11.2567
▁warehouse	-11.2567
▁protein	-11.2567
▁dentist	-11.2567
▁spores	-11.2567
▁parrot	-11.2567
▁fischer	-11.2568
▁seventeen	-11.2568
▁depth	-11.2568
▁petersburg	-11.2568
▁output	-11.2568
▁detach	-11.2568
▁recommendations	-11.2569
▁inverse	-11.2569
▁falk	-11.2571
cursor	-11.2591
▁drip	-11.2632
ipping	-11.2633
rpor	-11.2639
foot	-11.3035
scribed	-11.306
▁sustain	-11.3061
í	-11.3067
▁exempt	-11.3067
▁stubborn	-11.3067
▁ambassador	-11.3067
▁archdiocese	-11.3067
▁aristocrat	-11.3067
▁astronomy	-11.3067
▁barricade	-11.3067
▁breisgau	-11.3067
▁captivity	-11.3067
▁claustrophobi	-11.3067
▁compulsory	-11.3067
▁deliberat	-11.3067
▁dismissed	-11.3067
▁elephant	-11.3067
▁heilbronn	-11.3067
▁hydraulic	-11.3067
▁innocence	-11.3067
▁intercept	-11.3067
▁istanbul	-11.3067
▁mosquitoes	-11.3067
▁nationwide	-11.3067
▁phenomena	-11.3067
▁photosynthesis	-11.3067
▁prerequisite	-11.3067
▁protagonist	-11.3067
▁reinforced	-11.3067
▁reluctant	-11.3067
▁rhetoric	-11.3067
▁slovakia	-11.3067
▁strategy	-11.3067
▁supermarket	-11.3067
▁supervision	-11.3067
▁buffet	-11.3067
▁cabaret	-11.3067
▁triumph	-11.3067
▁asylum	-11.3067
▁conquest	-11.3067
▁january	-11.3067
▁offensive	-11.3067
▁rugby	-11.3067
▁nectar	-11.3067
▁sepals	-11.3067
▁counterpart	-11.3067
▁farewell	-11.3067
▁incredibl	-11.3067
▁pretense	-11.3067
▁tariff	-11.3067
▁romanesque	-11.3067
▁barbara	-11.3067
▁falcon	-11.3067
▁soluble	-11.3067
▁balkan	-11.3067
▁glott	-11.3067
▁restoration	-11.3067
▁granite	-11.3067
▁flavor	-11.3067
believing	-11.3067
▁reunion	-11.3067
▁allotment	-11.3067
▁sicily	-11.3067
▁intact	-11.3067
▁vegan	-11.3067
▁abdom	-11.3067
▁discriminat	-11.3067
▁wolfsburg	-11.3068
ccup	-11.3068
▁scheme	-11.3068
▁agnes	-11.3068
▁cousin	-11.3068
▁charming	-11.3068
▁newcomer	-11.3068
▁costume	-11.3068
▁headlights	-11.3068
▁unfit	-11.3068
▁terminal	-11.3069
▁deviate	-11.3069
▁emulate	-11.3069
deutsch	-11.3072
▁bertol	-11.3073
tropic	-11.3084
mposed	-11.3093
goblin	-11.3095
imaginable	-11.3294
▁devil	-11.3423
believers	-11.3452
meyer	-11.3466
▁slip	-11.3471
▁acquir	-11.3518
▁adopt	-11.3518
▁convert	-11.3519
iddle	-11.3543
▁comfort	-11.3587
▁happi	-11.3592
▁absurd	-11.3593
▁accommodate	-11.3593
▁adequate	-11.3593
▁aesthetic	-11.3593
▁afghanistan	-11.3593
▁amphibi	-11.3593
▁antiquity	-11.3593
▁avalanche	-11.3593
▁barbecue	-11.3593
▁cavalry	-11.3593
▁censorship	-11.3593
▁clutch	-11.3593
▁cockpit	-11.3593
▁deactivate	-11.3593
▁devastat	-11.3593
▁dungeon	-11.3593
▁eclipse	-11.3593
▁enlightenment	-11.3593
▁explanatory	-11.3593
▁fragrance	-11.3593
▁horrible	-11.3593
▁imprisoned	-11.3593
▁imprisonment	-11.3593
▁indigenous	-11.3593
▁instinct	-11.3593
▁jerusalem	-11.3593
▁matthias	-11.3593
▁ornamental	-11.3593
▁python	-11.3593
▁rectangular	-11.3593
▁recurr	-11.3593
▁schizophreni	-11.3593
▁scooter	-11.3593
▁slaughter	-11.3593
▁sporadically	-11.3593
▁strategic	-11.3593
▁unemployed	-11.3593
▁vorpommern	-11.3593
▁wisdom	-11.3593
▁brackets	-11.3593
▁grenade	-11.3593
▁household	-11.3593
▁reunification	-11.3593
▁statistical	-11.3593
▁suffocat	-11.3593
▁almonds	-11.3593
▁beatrix	-11.3593
▁occupy	-11.3593
▁sediment	-11.3593
▁vitamin	-11.3593
▁wreath	-11.3593
▁sketch	-11.3593
▁xaver	-11.3593
▁provoke	-11.3593
▁charcoal	-11.3593
▁okres	-11.3593
▁pathogen	-11.3593
▁quarry	-11.3593
▁plaque	-11.3593
▁cloister	-11.3594
▁multipli	-11.3594
▁chassis	-11.3594
▁premium	-11.3594
▁relieved	-11.3594
▁vague	-11.3594
▁pylon	-11.3594
▁trivial	-11.3594
▁emblem	-11.3594
▁fisherman	-11.3594
▁sahara	-11.3594
▁jerry	-11.3594
▁platt	-11.3594
▁ventilat	-11.3594
▁rifle	-11.3594
▁choler	-11.3594
▁gregor	-11.3594
▁abundan	-11.3594
▁nurse	-11.3594
▁duties	-11.3594
▁warrior	-11.3594
▁supervise	-11.3594
▁frederik	-11.3594
▁undertake	-11.3594
▁merger	-11.3595
▁slam	-11.3595
▁martyr	-11.3595
▁uneven	-11.3595
▁guilt	-11.3597
▁wobbl	-11.3599
▁lichten	-11.3602
ointment	-11.3608
▁glue	-11.3611
▁ammoni	-11.3615
▁regin	-11.3673
▁westphal	-11.3911
woke	-11.4025
profit	-11.4116
▁distinct	-11.4135
corporate	-11.4148
ó	-11.4149
▁administrator	-11.4149
▁astronaut	-11.4149
▁bamboo	-11.4149
▁commuters	-11.4149
▁cuisine	-11.4149
▁cycling	-11.4149
▁decreasing	-11.4149
▁destiny	-11.4149
▁detroit	-11.4149
▁elevation	-11.4149
▁elongated	-11.4149
▁fascinat	-11.4149
▁firefighters	-11.4149
▁gigabyte	-11.4149
▁godfather	-11.4149
▁hereditary	-11.4149
▁hurricane	-11.4149
▁illusion	-11.4149
▁kaiserstuhl	-11.4149
▁ketchup	-11.4149
▁maximilian	-11.4149
▁minnesota	-11.4149
▁monasteries	-11.4149
▁nurnberg	-11.4149
▁panorama	-11.4149
▁peanuts	-11.4149
▁platinum	-11.4149
▁prefecture	-11.4149
▁prejudices	-11.4149
▁prosecution	-11.4149
▁prosperity	-11.4149
▁reproduction	-11.4149
▁saarbrucken	-11.4149
▁spectrum	-11.4149
▁strategies	-11.4149
▁subspecies	-11.4149
▁undamaged	-11.4149
ncreas	-11.4149
▁creep	-11.4149
▁florence	-11.4149
▁pajama	-11.4149
▁refract	-11.4149
▁promising	-11.4149
▁boulder	-11.4149
▁illuminat	-11.4149
▁landshut	-11.4149
▁asphalt	-11.4149
▁expelled	-11.4149
▁gottfried	-11.4149
▁healthcare	-11.4149
▁transformer	-11.4149
▁baptize	-11.4149
▁bettina	-11.4149
▁ancestr	-11.4149
▁burgenland	-11.4149
▁fauna	-11.4149
▁ironically	-11.4149
▁arthur	-11.4149
▁ghana	-11.4149
▁lounge	-11.4149
▁schloss	-11.4149
▁overseas	-11.4149
▁dairy	-11.4149
▁ignite	-11.4149
▁kauf	-11.4149
▁mutual	-11.4149
fascist	-11.4149
▁predict	-11.4149
▁butterfl	-11.4149
▁altona	-11.4149
▁fortune	-11.4149
▁cease	-11.415
▁slum	-11.415
▁flank	-11.415
▁pollute	-11.415
▁scam	-11.4152
▁britta	-11.4156
▁lexic	-11.4157
▁blend	-11.4182
▁audibl	-11.4195
▁accus	-11.4457
ctically	-11.4647
choke	-11.465
▁decorate	-11.4687
▁regime	-11.4737
▁magnify	-11.4737
▁abstain	-11.4737
▁bizarre	-11.4737
▁homosexual	-11.4737
isexual	-11.4737
philharmoni	-11.4737
▁accuracy	-11.4737
▁achilles	-11.4737
▁agencies	-11.4737
▁anatomical	-11.4737
▁barcelona	-11.4737
▁buddhist	-11.4737
▁cliché	-11.4737
▁confederation	-11.4737
▁cooperative	-11.4737
▁cosmonaut	-11.4737
▁culprit	-11.4737
▁denounce	-11.4737
▁dictator	-11.4737
▁dictionary	-11.4737
▁earthquake	-11.4737
▁educator	-11.4737
▁hildesheim	-11.4737
▁hybrid	-11.4737
▁hydrochlori	-11.4737
▁injustice	-11.4737
▁insufficient	-11.4737
▁keyword	-11.4737
▁manhattan	-11.4737
▁mysterious	-11.4737
▁narrative	-11.4737
▁navigable	-11.4737
▁ordinary	-11.4737
▁philosopher	-11.4737
▁protocol	-11.4737
▁punctuat	-11.4737
▁recyclable	-11.4737
▁referendum	-11.4737
▁remscheid	-11.4737
▁repetition	-11.4737
▁scenario	-11.4737
▁schreiber	-11.4737
▁subscribe	-11.4737
▁sulfur	-11.4737
▁twitter	-11.4737
▁elsewhere	-11.4737
▁embryo	-11.4737
▁nikolai	-11.4737
▁utilities	-11.4737
▁cornelia	-11.4737
▁quantify	-11.4737
▁reliably	-11.4737
▁ridicule	-11.4737
▁vessel	-11.4737
▁absent	-11.4737
▁imperative	-11.4737
▁lithium	-11.4737
▁submerge	-11.4737
▁folklore	-11.4737
▁leisure	-11.4737
▁messenger	-11.4737
▁opaque	-11.4737
▁adjoin	-11.4737
▁gasoline	-11.4737
▁volker	-11.4737
▁freak	-11.4737
▁logistic	-11.4737
▁taylor	-11.4737
▁volley	-11.4737
▁globe	-11.4737
▁provocati	-11.4737
▁sultan	-11.4737
▁residu	-11.4737
▁delegate	-11.4737
▁gloat	-11.4737
▁anhalt	-11.4737
▁remix	-11.4737
▁ecological	-11.4737
▁upload	-11.4737
selotte	-11.4737
▁cliche	-11.4737
▁underpass	-11.4737
▁fierce	-11.4737
▁reimann	-11.4737
▁aerob	-11.4737
▁verona	-11.4738
blazon	-11.4746
▁swap	-11.4747
▁desire	-11.5312
▁whil	-11.5325
aught	-11.5354
▁scott	-11.5359
▁eponym	-11.5362
▁pyramid	-11.5362
comprehensible	-11.5362
habilitation	-11.5362
á	-11.5362
▁acceleration	-11.5362
▁accomplished	-11.5362
▁admiral	-11.5362
▁admission	-11.5362
▁ambulance	-11.5362
▁amplifie	-11.5362
▁antelope	-11.5362
▁anxiety	-11.5362
▁aschaffenburg	-11.5362
▁backdrop	-11.5362
▁basilica	-11.5362
▁brussels	-11.5362
▁cinnamon	-11.5362
▁cognitive	-11.5362
▁conspicuous	-11.5362
▁crescent	-11.5362
▁crusade	-11.5362
▁czechoslovakia	-11.5362
▁delicacy	-11.5362
▁deployment	-11.5362
▁dismissal	-11.5362
▁disregarded	-11.5362
▁doctrine	-11.5362
▁episcop	-11.5362
▁exaggerate	-11.5362
▁excursion	-11.5362
▁hooligans	-11.5362
▁immense	-11.5362
▁infrequent	-11.5362
▁larvae	-11.5362
▁memorize	-11.5362
▁mongolia	-11.5362
▁mortgage	-11.5362
▁olivia	-11.5362
▁osnabruck	-11.5362
▁overview	-11.5362
▁posthumous	-11.5362
▁prognos	-11.5362
▁proximity	-11.5362
▁quartet	-11.5362
▁recursive	-11.5362
▁reminiscen	-11.5362
▁rhyme	-11.5362
▁singapore	-11.5362
▁sophisticated	-11.5362
▁strasbourg	-11.5362
▁stumbled	-11.5362
▁thunderstorm	-11.5362
▁tremendous	-11.5362
▁undecided	-11.5362
▁venezuela	-11.5362
▁yugoslavia	-11.5362
▁belgian	-11.5362
▁constitute	-11.5362
▁counsel	-11.5362
▁deteriorat	-11.5362
▁oblast	-11.5362
▁patricia	-11.5362
▁tendency	-11.5362
▁wolves	-11.5362
▁bikini	-11.5362
▁carolina	-11.5362
▁probability	-11.5362
▁soundtrack	-11.5362
▁intestine	-11.5362
▁moisture	-11.5362
▁offenders	-11.5362
▁sniper	-11.5362
▁utility	-11.5362
▁introver	-11.5362
â	-12.0255
ʿ	-12.1366
ə	-13.0211
ú	-13.8545
̇	-14.8543
ñ	-14.8544
q	-14.8545
ð	-14.8545
ā	-14.8545
ū	-14.8545
