<s>	0
<pad>	0
</s>	0
<unk>	0
en	-3.585
e	-3.75243
s	-3.77096
▁	-3.79672
n	-3.83458
▁die	-3.88759
▁der	-3.90332
▁in	-4.43123
t	-4.46404
▁und	-4.5072
▁ist	-4.63531
er	-4.65076
▁das	-4.76096
▁er	-4.79871
▁ein	-4.88403
▁zu	-5.01818
▁sie	-5.04016
▁den	-5.04552
▁auf	-5.11434
r	-5.12161
▁sich	-5.16288
▁es	-5.1697
▁nicht	-5.17
▁mit	-5.18062
▁an	-5.18416
▁von	-5.22129
▁eine	-5.27066
▁im	-5.29875
▁aus	-5.43964
▁als	-5.45182
▁des	-5.52344
m	-5.54761
▁auch	-5.56566
▁dem	-5.5719
▁war	-5.57334
▁für	-5.62648
▁ich	-5.64096
▁man	-5.65263
▁nach	-5.72062
▁sind	-5.72659
▁wurde	-5.75963
es	-5.77551
te	-5.8034
▁hat	-5.83537
ung	-5.89111
▁wird	-5.90134
▁so	-5.91317
▁werden	-5.94001
st	-5.94989
▁be	-5.9729
▁vor	-6.00778
▁ver	-6.01299
▁noch	-6.02362
▁du	-6.07666
▁wie	-6.11221
▁ge	-6.15263
k	-6.15968
d	-6.1687
▁ab	-6.17855
▁bei	-6.17969
▁über	-6.1944
in	-6.21253
▁um	-6.2408
▁seine	-6.2702
▁durch	-6.2786
▁kann	-6.27905
▁einen	-6.28628
▁wir	-6.29351
▁diese	-6.31058
p	-6.31985
▁nur	-6.33553
y	-6.33897
ä	-6.35801
▁sein	-6.37929
h	-6.39597
▁aber	-6.40558
g	-6.41056
▁am	-6.41278
▁zum	-6.42846
u	-6.44151
▁ihr	-6.4502
▁unter	-6.4526
b	-6.46207
o	-6.48972
▁einer	-6.52153
l	-6.52426
▁oder	-6.52466
▁was	-6.56556
▁einem	-6.57363
f	-6.57761
a	-6.61126
ge	-6.63278
▁mal	-6.64275
▁wenn	-6.66542
z	-6.67506
▁zwei	-6.6791
de	-6.69245
ig	-6.69464
al	-6.69714
▁haben	-6.71039
ü	-6.72952
▁wieder	-6.7454
▁zur	-6.74762
▁schon	-6.74788
ch	-6.74999
▁hier	-6.75873
ten	-6.76765
▁da	-6.78465
el	-6.78507
▁dass	-6.78699
an	-6.7935
sch	-6.80721
le	-6.80733
lich	-6.81237
ck	-6.83571
▁zeit	-6.84373
▁dieser	-6.84481
▁gibt	-6.85145
▁mehr	-6.86782
▁ihre	-6.87234
ter	-6.87739
▁muss	-6.8933
be	-6.90701
ö	-6.9205
▁mir	-6.92818
▁immer	-6.94387
re	-6.95023
ur	-6.95079
▁alle	-6.95775
ischen	-6.96448
▁bis	-6.97819
i	-6.9786
▁sch	-6.9804
is	-7.00442
▁dann	-7.00676
w	-7.01292
et	-7.01503
▁heute	-7.0179
▁wurden	-7.02533
▁keine	-7.04031
▁können	-7.11509
▁seiner	-7.11609
▁k	-7.13494
iert	-7.13504
us	-7.14616
dem	-7.14815
▁doch	-7.15032
den	-7.17577
▁re	-7.17872
der	-7.1878
▁ja	-7.19784
ische	-7.22509
▁viel	-7.22848
li	-7.23008
▁stadt	-7.23589
▁s	-7.23951
▁drei	-7.24317
▁dabei	-7.26493
ll	-7.27005
at	-7.28315
▁jedoch	-7.28549
▁hatte	-7.29126
▁un	-7.29899
or	-7.29956
ver	-7.30156
vom	-7.30498
▁mich	-7.30825
▁sehr	-7.30939
▁später	-7.31046
em	-7.31054
chen	-7.31241
zeit	-7.33045
▁teil	-7.33106
it	-7.34046
▁ihm	-7.34635
▁wo	-7.35117
▁a	-7.35163
ar	-7.35325
▁jetzt	-7.35905
ra	-7.3655
▁dort	-7.36809
▁sollte	-7.3682
▁kein	-7.37818
▁etwas	-7.38741
▁liegt	-7.38753
il	-7.38785
▁gut	-7.39455
ieren	-7.39587
▁viele	-7.39679
um	-7.39743
▁einfach	-7.39919
▁damit	-7.40411
▁beim	-7.4114
la	-7.43744
on	-7.43811
▁habe	-7.44927
ungen	-7.45576
▁selbst	-7.45623
ie	-7.45727
ri	-7.45799
▁gegen	-7.46631
▁geht	-7.47135
ut	-7.4735
▁waren	-7.48145
▁vier	-7.48503
▁la	-7.49316
c	-7.49522
isch	-7.49812
▁bitte	-7.50227
ler	-7.50696
gel	-7.52342
bau	-7.53013
▁außer	-7.54722
na	-7.55344
▁kommt	-7.55905
▁uns	-7.56213
▁ihn	-7.56344
land	-7.56753
▁ma	-7.56995
sten	-7.57115
▁mein	-7.57258
lo	-7.57673
kt	-7.58211
▁wer	-7.58619
▁zurück	-7.58655
gen	-7.58869
zu	-7.58877
he	-7.59435
▁ohne	-7.59674
ma	-7.59755
bar	-7.5992
▁bekannt	-7.6183
▁ra	-7.62027
▁ob	-7.62676
▁kurz	-7.63141
▁frei	-7.63212
x	-7.63565
di	-7.63639
▁weiter	-7.6373
▁soll	-7.63853
au	-7.6447
ro	-7.65375
tra	-7.65672
▁c	-7.66361
ing	-7.66532
bel	-7.67765
▁de	-7.6819
▁alles	-7.68399
▁konnte	-7.68807
halb	-7.69129
▁andere	-7.69554
▁le	-7.69819
▁neu	-7.70179
ation	-7.70371
ka	-7.70708
▁wasser	-7.71059
▁ganz	-7.72112
▁diesem	-7.72134
▁will	-7.72353
▁seinen	-7.72471
mann	-7.72839
▁anderen	-7.72915
▁zusammen	-7.73045
▁ersten	-7.73264
▁b	-7.73337
▁steht	-7.73371
▁neben	-7.73499
▁dir	-7.7374
▁erst	-7.73992
▁einige	-7.74735
ul	-7.75035
▁hin	-7.75162
▁bau	-7.75514
▁nichts	-7.76138
▁ent	-7.76262
▁ha	-7.76566
▁erste	-7.76631
▁gleich	-7.7709
▁jahr	-7.77302
me	-7.77535
▁film	-7.77568
▁nun	-7.77789
▁weiß	-7.77799
hl	-7.77909
▁kinder	-7.78373
▁he	-7.79127
▁neue	-7.79476
end	-7.7963
ken	-7.79778
▁macht	-7.8012
as	-7.81061
heit	-7.81071
stand	-7.81117
ien	-7.81122
▁mehrere	-7.81345
to	-7.81527
▁fünf	-7.81531
▁ro	-7.81647
▁her	-7.81923
cht	-7.82705
▁zwischen	-7.82863
▁dich	-7.82889
▁na	-7.83147
▁dazu	-7.83649
berg	-7.83695
▁land	-7.84145
ta	-7.84245
igen	-7.85345
▁pro	-7.85586
▁hoch	-7.85639
ste	-7.86439
▁li	-7.86587
ben	-7.86612
▁statt	-7.87216
▁kam	-7.87349
▁g	-7.88034
▁ihrer	-7.88133
vi	-7.88323
ner	-7.88713
▁oft	-7.88848
▁bereits	-7.89096
▁gehört	-7.89221
da	-7.89237
▁meine	-7.89377
▁lassen	-7.90071
▁weg	-7.90224
pp	-7.90425
▁befindet	-7.90585
ha	-7.91258
bi	-7.91268
ab	-7.91653
am	-7.91693
▁fl	-7.917
▁weitere	-7.9171
▁ober	-7.91782
▁während	-7.92007
ik	-7.92314
go	-7.92338
▁kon	-7.93033
▁gemeinde	-7.93325
▁jahre	-7.93673
▁herr	-7.93832
▁leben	-7.93838
▁bo	-7.93871
▁ta	-7.93994
rat	-7.94056
hr	-7.948
▁lange	-7.94851
recht	-7.95036
los	-7.95294
ige	-7.95951
▁frau	-7.9641
▁ort	-7.96883
che	-7.9708
ff	-7.97327
▁w	-7.97375
▁menschen	-7.97713
▁wäre	-7.97913
▁lässt	-7.98075
gt	-7.98238
▁se	-7.98302
▁welt	-7.9834
pa	-7.98582
▁seit	-7.98891
▁schnell	-7.98926
▁ka	-7.98953
▁kommen	-7.99153
▁danach	-7.99298
▁z	-7.99505
burg	-8.00115
▁bin	-8.00251
▁spiel	-8.00286
▁würde	-8.00379
▁gab	-8.0051
ko	-8.00563
zi	-8.01063
▁nie	-8.01176
un	-8.01643
liche	-8.0191
▁grund	-8.03262
ant	-8.03281
▁machen	-8.0338
ster	-8.03691
▁beiden	-8.0437
▁also	-8.04429
▁eigentlich	-8.04541
ke	-8.05255
keit	-8.0526
lichen	-8.05432
▁ende	-8.06635
▁genau	-8.06878
▁kannst	-8.07326
werk	-8.07581
▁gerade	-8.07654
fall	-8.07668
▁po	-8.0772
ger	-8.07767
gang	-8.07776
▁jede	-8.07946
▁gar	-8.085
id	-8.08614
th	-8.09023
co	-8.09202
▁gr	-8.10136
ber	-8.10361
ga	-8.10536
mit	-8.10598
nd	-8.10701
son	-8.10717
form	-8.10868
spiel	-8.10916
▁welche	-8.10924
▁h	-8.11173
▁haupt	-8.11319
▁jeder	-8.11551
▁ins	-8.11656
ton	-8.11725
ol	-8.1177
▁besonder	-8.11785
▁euch	-8.12241
▁acht	-8.12297
▁gilt	-8.12418
ich	-8.13112
▁je	-8.13483
v	-8.1358
fer	-8.13891
tag	-8.13921
▁allem	-8.14065
▁sp	-8.14171
▁allerdings	-8.14182
▁fest	-8.14285
▁zahlreiche	-8.14384
▁müssen	-8.14588
wa	-8.14667
▁hast	-8.15001
▁fa	-8.15573
▁stehen	-8.159
▁möglich	-8.16066
▁deine	-8.1655
und	-8.16557
ad	-8.16558
ei	-8.16736
▁solche	-8.16813
elt	-8.1693
▁mittel	-8.17005
schaft	-8.17018
▁darf	-8.17292
▁me	-8.17437
ion	-8.17643
nächst	-8.17779
▁o	-8.17863
▁ihnen	-8.17891
tz	-8.18258
▁einmal	-8.18411
▁schwer	-8.18593
▁ho	-8.18718
▁al	-8.18936
▁platz	-8.19698
▁jahren	-8.19893
stein	-8.19952
▁sei	-8.20731
▁p	-8.20847
▁groß	-8.2099
teil	-8.21019
ein	-8.21106
▁sehen	-8.21117
▁blieb	-8.21175
▁ne	-8.21208
ti	-8.21661
▁voll	-8.21753
▁lang	-8.22097
ia	-8.22452
▁f	-8.22488
▁meist	-8.22554
▁musik	-8.22602
▁sowie	-8.22665
▁besser	-8.22681
▁möchte	-8.22895
▁beide	-8.22919
▁hinter	-8.22921
▁art	-8.22946
haus	-8.2328
bo	-8.23295
▁natürlich	-8.23327
mo	-8.23542
▁sohn	-8.238
▁stark	-8.23929
▁mar	-8.23932
pe	-8.24048
▁deutschland	-8.24219
▁tag	-8.24285
▁verschiedene	-8.24365
▁könnte	-8.24413
▁vater	-8.2493
os	-8.2499
▁ging	-8.25057
▁namen	-8.25545
▁hand	-8.25686
▁schön	-8.25924
▁berlin	-8.26022
ling	-8.26087
▁luft	-8.26097
▁ri	-8.2624
▁we	-8.26482
ß	-8.26527
▁davon	-8.26647
ic	-8.26672
ende	-8.26947
▁familie	-8.27265
ierung	-8.27318
im	-8.27402
fe	-8.27466
stadt	-8.276
▁bi	-8.27664
sa	-8.281
▁deutschen	-8.29088
▁form	-8.29768
tisch	-8.29869
her	-8.30056
▁große	-8.30096
▁etwa	-8.30111
▁mo	-8.30221
▁wohl	-8.30524
ier	-8.30548
ium	-8.30583
bl	-8.30701
▁lo	-8.30731
▁sa	-8.30799
▁bundes	-8.30974
▁recht	-8.31064
zen	-8.3124
tor	-8.31675
▁dafür	-8.31959
ierte	-8.32095
kommen	-8.32351
ir	-8.32406
▁ausge	-8.32487
ph	-8.32654
▁sechs	-8.32682
▁kr	-8.32807
▁pa	-8.32992
▁weit	-8.33133
▁weil	-8.3316
▁früh	-8.33361
▁gehen	-8.33461
▁meisten	-8.33484
do	-8.33908
▁studierte	-8.34323
▁national	-8.34429
▁universität	-8.34794
▁rot	-8.34803
▁jemand	-8.34848
▁zweiten	-8.34949
▁ar	-8.35334
▁häufig	-8.35337
▁haus	-8.35395
zug	-8.35537
platz	-8.35588
acht	-8.35736
va	-8.35947
tion	-8.36033
ru	-8.36208
ft	-8.36349
ib	-8.36366
▁krieg	-8.36721
ku	-8.36883
gebiet	-8.36992
wi	-8.37028
ze	-8.37197
lin	-8.37285
enden	-8.38352
lauf	-8.38501
▁pi	-8.38508
▁vi	-8.39068
▁besteht	-8.39125
▁di	-8.39284
▁wegen	-8.40105
▁ru	-8.40158
weg	-8.40285
▁su	-8.40762
▁verwendet	-8.40889
aus	-8.40964
iv	-8.41059
▁ebenfalls	-8.41407
▁findet	-8.41681
▁warum	-8.41695
▁fast	-8.41744
▁halb	-8.41824
▁band	-8.41827
▁ange	-8.41896
▁wollte	-8.42041
ot	-8.42125
ment	-8.42583
▁lass	-8.42757
▁ca	-8.43086
▁ba	-8.43729
gehen	-8.43734
▁unsere	-8.44089
kel	-8.44168
tal	-8.44526
lang	-8.44639
si	-8.44666
▁wenig	-8.44847
▁erhielt	-8.44856
▁berg	-8.45015
▁bezeichnet	-8.45126
▁sitz	-8.4523
hi	-8.45438
▁mitglied	-8.45509
▁schul	-8.45512
▁geschichte	-8.45552
▁sieht	-8.45726
▁arbeit	-8.45811
▁hu	-8.45861
mer	-8.46065
▁benannt	-8.46214
▁klein	-8.46332
ine	-8.46365
▁darauf	-8.46488
▁ste	-8.46581
▁natur	-8.46761
ell	-8.46799
feld	-8.46902
mal	-8.46924
▁zehn	-8.47593
▁kopf	-8.47899
cher	-8.47918
▁all	-8.47991
▁lebt	-8.48087
▁diesen	-8.48323
▁gebiet	-8.48395
bahn	-8.48462
ja	-8.4852
▁paar	-8.48785
man	-8.48845
▁landes	-8.48863
auf	-8.48873
po	-8.48923
▁eigene	-8.49051
iz	-8.49086
so	-8.49132
sel	-8.49169
lage	-8.49402
▁vielleicht	-8.49552
▁erfolg	-8.4983
▁daher	-8.49987
▁bu	-8.50321
▁ex	-8.50428
ick	-8.5043
▁wirklich	-8.5044
▁st	-8.5052
ist	-8.50569
wert	-8.50772
mittel	-8.50772
fi	-8.50984
ho	-8.51019
grund	-8.5115
▁verheiratet	-8.51264
▁wort	-8.51418
mi	-8.51491
ce	-8.51492
▁pe	-8.5199
▁co	-8.52434
ker	-8.52631
▁könig	-8.52641
▁letzte	-8.52706
▁finden	-8.5272
punkt	-8.52755
▁deutsche	-8.52961
ba	-8.53323
einander	-8.53342
▁arbeitete	-8.53359
▁lebens	-8.53689
op	-8.53691
tel	-8.53751
▁lu	-8.54144
ität	-8.54282
▁niemand	-8.54485
▁the	-8.54725
wohl	-8.5498
halten	-8.55073
▁stand	-8.55194
heim	-8.55339
▁eis	-8.5566
weise	-8.55692
▁licht	-8.55745
▁bar	-8.55952
ven	-8.56207
▁neun	-8.56212
gra	-8.56362
▁alt	-8.5638
bei	-8.56396
▁abge	-8.56439
▁weltkrieg	-8.56533
▁hätte	-8.56539
stoff	-8.56591
▁burg	-8.56737
per	-8.56759
lu	-8.5715
▁spielte	-8.57297
▁mi	-8.57345
▁werk	-8.5749
haft	-8.57495
om	-8.57618
▁direkt	-8.57658
raum	-8.57887
iger	-8.58057
▁kleine	-8.58137
reich	-8.58288
▁rolle	-8.58506
▁morgen	-8.58756
▁erhalten	-8.59007
▁komm	-8.59058
▁tätig	-8.59322
▁richtig	-8.59354
schen	-8.59366
▁rechts	-8.59582
rie	-8.59613
▁alter	-8.59667
▁ki	-8.59715
isiert	-8.59731
▁sonst	-8.59768
▁verein	-8.59825
geben	-8.59893
▁nahm	-8.5995
▁of	-8.59958
▁klar	-8.60092
ve	-8.60137
▁sicher	-8.6026
▁heißt	-8.60386
pel	-8.6046
▁neuen	-8.60614
▁see	-8.60854
▁wollen	-8.60932
▁zeigt	-8.60933
▁fall	-8.6101
▁buch	-8.61144
▁genannt	-8.61242
▁anschließend	-8.61243
▁unterschiedlich	-8.61373
eck	-8.61476
▁kunst	-8.61542
▁liegen	-8.61749
▁rein	-8.61799
anz	-8.61854
ak	-8.62079
▁do	-8.62296
ismus	-8.62317
▁leute	-8.62376
min	-8.62438
ehm	-8.62667
▁jo	-8.62687
stellung	-8.62985
▁versucht	-8.63056
▁kirche	-8.6318
ischer	-8.63244
▁schl	-8.63305
bach	-8.63385
▁sonder	-8.63684
▁dein	-8.63892
▁kaum	-8.63942
▁sieben	-8.64146
▁l	-8.64278
▁mag	-8.64448
▁te	-8.64694
▁auto	-8.64785
▁begann	-8.65133
▁versch	-8.65245
▁wald	-8.65334
▁ko	-8.65439
▁süd	-8.65474
▁folgende	-8.65496
▁inner	-8.65505
▁mutter	-8.65588
▁einzige	-8.6575
▁gesch	-8.65768
ca	-8.65785
▁darüber	-8.65804
ppen	-8.65878
sicht	-8.66031
▁fr	-8.66341
▁führt	-8.66409
▁englisch	-8.66466
mon	-8.66469
▁heraus	-8.66658
▁ursprünglich	-8.66799
▁leicht	-8.66822
▁sta	-8.66902
arbeit	-8.66946
▁nord	-8.67111
bt	-8.67161
▁stellen	-8.67233
dessen	-8.67558
▁europa	-8.67586
▁fand	-8.67595
lös	-8.67665
reif	-8.67679
▁privat	-8.67813
▁alten	-8.68151
führung	-8.68231
stellen	-8.68594
▁unternehmen	-8.68622
qu	-8.68655
zeichen	-8.68843
nahme	-8.68939
▁geld	-8.68955
▁besten	-8.6902
▁ehe	-8.6903
▁musste	-8.69069
frei	-8.69142
▁öffentlich	-8.69148
▁schlecht	-8.69182
ow	-8.69272
▁sport	-8.69341
▁begriff	-8.69389
▁echt	-8.69667
▁ku	-8.69859
▁fach	-8.69867
ard	-8.69962
▁qu	-8.70017
▁halten	-8.70025
▁geben	-8.70075
▁laut	-8.70095
mme	-8.70132
▁kar	-8.70191
▁dar	-8.70202
▁tor	-8.70258
mpf	-8.70266
gesetzt	-8.70553
▁früher	-8.70598
▁essen	-8.70779
erweise	-8.70799
▁dorf	-8.70813
fel	-8.71003
▁größte	-8.7102
▁wein	-8.71089
▁bestimmt	-8.71167
▁einge	-8.71372
▁los	-8.71483
sprech	-8.71533
▁wissen	-8.71612
▁bedeutung	-8.7162
▁führte	-8.71791
▁tun	-8.71799
zahl	-8.72032
▁pu	-8.72039
schule	-8.72192
wand	-8.72194
▁erfolgreich	-8.72351
▁kreis	-8.7246
schrift	-8.72492
▁si	-8.72711
▁name	-8.72745
ord	-8.73024
stelle	-8.73278
ok	-8.73309
tsch	-8.7333
▁nehmen	-8.73498
▁stein	-8.73571
▁bleibt	-8.73608
dorf	-8.73673
zeug	-8.73677
meister	-8.73718
▁anders	-8.73767
▁eigenen	-8.739
▁bist	-8.73948
▁schau	-8.73957
▁wahl	-8.74001
öl	-8.7401
▁dadurch	-8.74153
dienst	-8.74209
▁west	-8.7431
▁partei	-8.74331
elle	-8.7435
hin	-8.74697
▁mark	-8.74703
fa	-8.74749
▁folge	-8.74884
▁freund	-8.74972
▁ziel	-8.75043
▁va	-8.75065
fahrt	-8.75085
ack	-8.75211
▁d	-8.75442
räum	-8.75538
▁besitz	-8.7556
▁bildet	-8.7572
vo	-8.75723
▁stammt	-8.75826
seite	-8.7588
▁wert	-8.75961
druck	-8.76238
▁handelt	-8.76422
sche	-8.76442
▁el	-8.76519
hör	-8.76603
and	-8.76704
▁beispiel	-8.76706
▁plan	-8.76929
io	-8.76952
▁manchmal	-8.77056
kon	-8.77094
bild	-8.77381
▁per	-8.778
rad	-8.77945
▁allen	-8.78113
ug	-8.78145
▁französisch	-8.78179
war	-8.78581
▁gemacht	-8.78699
ill	-8.78871
▁text	-8.78933
▁alte	-8.78945
ang	-8.79115
▁manche	-8.792
leben	-8.79351
igkeit	-8.79489
age	-8.79545
straße	-8.79574
▁mü	-8.7958
▁titel	-8.79599
ett	-8.79808
▁gebäude	-8.79839
halt	-8.80013
▁pol	-8.80225
art	-8.803
▁ad	-8.80302
mmer	-8.80377
▁großen	-8.80614
▁fällt	-8.80637
▁schwarz	-8.80682
▁ließ	-8.80853
▁for	-8.80871
▁anderem	-8.80874
▁schließlich	-8.81108
▁rück	-8.81118
▁gehörte	-8.81159
▁tod	-8.81183
▁braucht	-8.81239
▁letzten	-8.81256
▁augen	-8.81415
kla	-8.81533
▁eltern	-8.81632
▁farb	-8.81737
höhe	-8.81992
▁hält	-8.82131
▁insel	-8.82195
▁straßen	-8.82253
besondere	-8.82496
gestellt	-8.82584
sta	-8.82794
see	-8.82798
laden	-8.82864
▁schule	-8.82917
satz	-8.83004
▁kom	-8.83078
itz	-8.83146
stift	-8.83618
hol	-8.83865
▁fort	-8.84014
ziehen	-8.84074
▁fi	-8.8419
folge	-8.84208
gelegt	-8.84242
tan	-8.84287
▁arm	-8.84312
▁lehr	-8.84326
kan	-8.84346
▁schloss	-8.84389
sam	-8.84545
▁zie	-8.84637
tre	-8.84666
▁werde	-8.8467
▁trat	-8.84679
äl	-8.84751
tzt	-8.84821
▁kind	-8.84857
▁regel	-8.85075
gabe	-8.85391
▁zog	-8.85402
▁bevor	-8.85449
▁bald	-8.85575
▁tochter	-8.85605
stieg	-8.85616
ort	-8.85871
▁ost	-8.85958
▁damals	-8.86015
▁gehören	-8.8602
▁gesehen	-8.86171
▁herum	-8.86193
wer	-8.86375
ide	-8.86404
▁kra	-8.86414
▁stellt	-8.8642
▁arbeits	-8.86489
handel	-8.86808
▁fahr	-8.86828
gebracht	-8.86852
▁körper	-8.86897
▁nieder	-8.86946
▁jugend	-8.87226
▁no	-8.87295
▁schiff	-8.87432
ator	-8.87516
▁pf	-8.87553
▁sagen	-8.8757
ach	-8.8757
▁gelang	-8.87571
lt	-8.87647
▁daneben	-8.87654
▁wieso	-8.87711
ring	-8.87844
ah	-8.87959
gi	-8.87967
▁daten	-8.88026
legen	-8.88106
▁ir	-8.8813
▁bas	-8.88227
▁wa	-8.88297
▁bereich	-8.88344
pi	-8.88379
vor	-8.88401
▁vielen	-8.88564
▁fernseh	-8.8858
▁offen	-8.88896
▁daraufhin	-8.8893
▁park	-8.88962
▁grab	-8.8899
▁denn	-8.89203
▁wann	-8.89379
▁spielen	-8.8943
ry	-8.89432
▁sogar	-8.89469
▁aktiv	-8.89472
▁grün	-8.89671
▁eigen	-8.89678
▁gemeinsam	-8.89748
▁gott	-8.89772
▁langsam	-8.89777
▁gegenüber	-8.8978
▁jeden	-8.8987
▁falsch	-8.90172
port	-8.9052
▁ehemalige	-8.90596
▁gef	-8.90718
we	-8.90751
wo	-8.90853
▁zweite	-8.91018
▁geh	-8.91155
▁preis	-8.91203
schein	-8.91281
▁seite	-8.91306
▁nächsten	-8.91342
▁ju	-8.91345
▁gleichzeitig	-8.91473
▁gen	-8.91517
deck	-8.9184
gie	-8.91853
▁wenige	-8.91945
▁überhaupt	-8.9195
▁kreuz	-8.92063
▁genutzt	-8.92316
bruch	-8.92317
lau	-8.92361
▁fahren	-8.92483
▁herz	-8.92555
fahren	-8.93014
▁to	-8.93052
▁dritte	-8.93239
▁weiterhin	-8.93249
▁mannschaft	-8.93361
▁ga	-8.93365
scha	-8.93385
▁gute	-8.93567
verkehr	-8.93643
▁irgendwie	-8.93653
▁blick	-8.93659
mar	-8.93695
träger	-8.94004
graf	-8.94038
▁selten	-8.94083
▁landwirtschaft	-8.94101
▁weiteren	-8.94174
▁wohn	-8.94236
▁ganze	-8.94411
▁sollten	-8.94461
▁holz	-8.94496
▁aufge	-8.94639
▁boden	-8.9476
setzen	-8.94854
▁anfang	-8.94971
tum	-8.94976
voll	-8.95038
▁lieber	-8.951
▁daran	-8.95115
▁system	-8.95247
pro	-8.95315
▁frage	-8.9532
igt	-8.95328
▁nein	-8.95492
bro	-8.9554
▁tr	-8.95551
eher	-8.95555
▁spielt	-8.95617
up	-8.9572
the	-8.9577
▁raum	-8.95937
▁beste	-8.96055
▁pass	-8.96119
log	-8.96195
▁bleiben	-8.96248
▁meinen	-8.96302
▁worden	-8.96302
▁autor	-8.96313
▁rest	-8.96378
▁mil	-8.96522
leiter	-8.96546
▁roman	-8.96576
amt	-8.96632
▁san	-8.96713
▁kloster	-8.96752
▁not	-8.96775
▁hatten	-8.96879
▁flug	-8.97066
geordnet	-8.97206
▁sagt	-8.97251
gebaut	-8.97276
▁stets	-8.973
▁go	-8.97407
▁betrieb	-8.97517
▁minuten	-8.97564
▁gewann	-8.97662
▁gerne	-8.97852
bereich	-8.97943
▁größe	-8.9797
▁ei	-8.97988
netz	-8.98026
▁fisch	-8.98063
▁lag	-8.9834
▁eben	-8.98357
▁fluss	-8.98532
▁dienst	-8.98543
▁fe	-8.98692
▁tief	-8.98717
ina	-8.98721
schlag	-8.98746
▁theater	-8.98977
▁einsatz	-8.98995
▁eingesetzt	-8.9913
▁bürger	-8.99153
▁ben	-8.99199
gleich	-8.99216
ssen	-8.99227
▁kl	-8.99262
▁tür	-8.9927
sion	-8.99317
▁bra	-8.99338
▁start	-8.99424
▁sozial	-8.9944
od	-8.9958
▁hinaus	-8.99593
▁schi	-8.99649
▁mai	-8.99796
isierung	-8.99821
ähr	-8.99938
▁reich	-9.00044
▁gewinn	-9.00053
▁blut	-9.00221
▁arbeiten	-9.00341
▁halt	-9.00348
▁gold	-9.0049
▁kleiner	-9.00617
▁gesellschaft	-9.00663
▁funktion	-9.00672
▁mus	-9.00701
▁leistung	-9.00805
▁or	-9.00971
mut	-9.00994
▁entwicklung	-9.01042
▁hundert	-9.01062
▁feuer	-9.01106
zer	-9.01251
▁sprache	-9.01358
▁länger	-9.01407
▁kauf	-9.01416
▁inter	-9.0153
system	-9.01552
tlich	-9.01671
▁ach	-9.01697
▁fri	-9.01924
isten	-9.01941
▁volks	-9.02336
▁fertig	-9.02396
▁straße	-9.02421
▁beginn	-9.0265
schrei	-9.02698
ag	-9.02729
▁wahrscheinlich	-9.02828
▁gefunden	-9.0283
▁rat	-9.02944
▁endlich	-9.0299
▁new	-9.03068
▁raus	-9.03271
▁projekt	-9.03272
eiß	-9.03375
▁müsste	-9.03464
▁mensch	-9.03514
▁karriere	-9.03536
sprache	-9.03697
scheid	-9.03917
▁sätze	-9.03944
▁punkt	-9.03996
▁nächste	-9.04024
▁liebe	-9.04064
▁einzel	-9.04095
▁reicht	-9.04146
▁richtung	-9.04235
weit	-9.04366
▁nimmt	-9.04368
ding	-9.04421
kirche	-9.0446
▁post	-9.0448
▁tu	-9.04556
▁bad	-9.04645
station	-9.047
▁leider	-9.04702
▁strom	-9.04763
▁wesentlich	-9.04775
▁städte	-9.04792
▁sah	-9.04803
▁aufgabe	-9.0482
▁hauptstadt	-9.04839
▁amt	-9.0501
▁vorher	-9.05023
geschichte	-9.05052
genommen	-9.05089
▁junge	-9.05157
ki	-9.05231
▁zusätzlich	-9.05267
▁werke	-9.05627
▁zer	-9.05656
▁gruppe	-9.05663
▁kirchen	-9.05701
▁unbe	-9.0571
▁weniger	-9.05756
▁uhr	-9.05811
▁bri	-9.05924
▁eng	-9.05992
▁meiner	-9.06002
gesellschaft	-9.06031
▁heiß	-9.06163
schau	-9.06231
▁tage	-9.06277
▁team	-9.06337
zig	-9.06339
▁dr	-9.06575
▁lied	-9.06605
▁versuch	-9.06617
▁veröffentlicht	-9.06759
▁druck	-9.06761
ud	-9.06845
ron	-9.06943
▁u	-9.06947
▁hol	-9.07027
▁polizei	-9.07039
schiff	-9.07058
▁nacht	-9.07148
▁wi	-9.07159
▁gi	-9.07176
gegen	-9.07195
▁bruder	-9.07262
▁besuchte	-9.07285
▁künstler	-9.07301
▁komplett	-9.07767
▁deutlich	-9.07768
if	-9.07774
▁klasse	-9.07823
▁bisher	-9.07975
▁hör	-9.07995
hof	-9.0802
plan	-9.08057
film	-9.08102
trieb	-9.08227
▁befinden	-9.08274
▁abend	-9.08343
▁regional	-9.08389
▁setzt	-9.08471
▁übrig	-9.08785
▁modern	-9.08796
▁op	-9.08905
▁regen	-9.09197
▁kenn	-9.09535
▁allein	-9.09537
▁breit	-9.09669
▁prä	-9.09681
▁saison	-9.09713
wirtschaft	-9.09779
▁allgemein	-9.09813
▁vergessen	-9.09813
▁höher	-9.09862
schlagen	-9.09888
▁zug	-9.09951
tik	-9.10009
▁sprach	-9.1009
gu	-9.10118
▁seiten	-9.10186
last	-9.10227
▁rund	-9.10244
xi	-9.10256
▁wochen	-9.10277
▁hamburg	-9.10332
▁frauen	-9.1034
▁selb	-9.10394
treten	-9.1045
▁keiner	-9.105
▁dreh	-9.10664
▁sand	-9.10719
▁neuer	-9.10737
getragen	-9.10746
▁wuchs	-9.10853
▁geboren	-9.1086
▁normal	-9.10869
wegen	-9.10889
tritt	-9.10911
stä	-9.10971
▁machte	-9.11133
fl	-9.11209
sitz	-9.11334
▁gast	-9.11364
▁wahr	-9.11383
▁problem	-9.11415
▁gesamte	-9.11423
▁paul	-9.11487
▁sollen	-9.11688
weile	-9.11811
▁stunden	-9.11966
üss	-9.12051
▁wichtige	-9.12286
stände	-9.12364
musik	-9.12539
▁fragen	-9.12624
▁blau	-9.12806
▁gleichen	-9.1282
▁entstanden	-9.12825
wagen	-9.13029
▁cha	-9.13085
erei	-9.13143
▁weise	-9.13225
gemeinde	-9.13421
▁fuß	-9.13521
▁gas	-9.13543
kreis	-9.13558
▁hohe	-9.13597
▁guten	-9.13627
▁bild	-9.13633
statt	-9.1366
wehr	-9.14011
▁nördlich	-9.14035
▁ur	-9.14065
les	-9.14138
▁georg	-9.1422
▁tut	-9.14394
▁tiere	-9.14458
fach	-9.14495
▁zählt	-9.14576
du	-9.14586
▁dra	-9.1467
len	-9.14736
gegeben	-9.14794
▁habt	-9.14862
▁bestand	-9.14899
j	-9.14906
▁i	-9.14983
▁lehrer	-9.15068
▁hall	-9.15143
▁stück	-9.15167
oren	-9.15168
▁kalt	-9.15285
▁starb	-9.15335
▁aller	-9.15406
gelassen	-9.15515
▁har	-9.15517
fang	-9.15566
▁schlaf	-9.15612
führer	-9.15644
▁region	-9.15738
sehen	-9.15759
stück	-9.15824
▁seitdem	-9.15924
▁fenster	-9.16224
▁staats	-9.16228
▁musst	-9.16274
▁verbindung	-9.16309
▁zentral	-9.16315
▁kritik	-9.16578
schloss	-9.16749
▁bedeutet	-9.16768
▁genug	-9.16799
za	-9.16833
▁teilweise	-9.16888
lig	-9.16935
▁innen	-9.1694
▁bevölkerung	-9.16976
länder	-9.17023
stellt	-9.17134
rich	-9.17174
▁eure	-9.17206
▁führen	-9.17218
▁italien	-9.17257
bu	-9.17268
wasser	-9.17336
bert	-9.17438
▁hä	-9.17465
▁vo	-9.17518
ham	-9.17536
▁finde	-9.17561
pu	-9.17586
▁hi	-9.17706
▁bestehen	-9.17716
oni	-9.17819
▁letzter	-9.17858
schutz	-9.17951
▁kor	-9.17991
▁hart	-9.18014
▁arbeitet	-9.18032
▁woche	-9.18216
ständig	-9.18274
nder	-9.18387
▁bahn	-9.18401
▁gu	-9.18457
▁gerät	-9.18481
▁rad	-9.18504
▁miss	-9.18559
▁kla	-9.18651
▁wirkt	-9.18689
wei	-9.18725
▁seid	-9.18784
▁pl	-9.18817
unterricht	-9.18825
▁errichtet	-9.19009
▁bietet	-9.19009
▁markt	-9.19039
jahr	-9.19125
ruf	-9.19167
gg	-9.19201
noch	-9.19208
▁gewesen	-9.19222
lassen	-9.19319
▁ähnlich	-9.19466
richtung	-9.19486
▁elektro	-9.19541
linie	-9.19542
▁car	-9.19558
teile	-9.19577
▁kilometer	-9.19577
▁reg	-9.19622
tiert	-9.19671
▁spieler	-9.19674
▁heilig	-9.19681
bank	-9.19684
▁kleinen	-9.19686
rin	-9.19729
▁kur	-9.19745
meisterschaft	-9.19887
tür	-9.19949
▁sommer	-9.19982
▁unser	-9.2007
▁außen	-9.2015
▁älter	-9.20152
▁winter	-9.20154
▁bla	-9.20176
▁stelle	-9.20189
▁tier	-9.2029
▁wind	-9.20331
▁dom	-9.20333
schicht	-9.2038
▁namens	-9.20509
zwischen	-9.20697
▁anti	-9.20722
▁mu	-9.20818
▁blüten	-9.20843
▁hans	-9.21053
▁hinzu	-9.21087
▁kultur	-9.21119
▁th	-9.21177
▁sal	-9.21203
wesen	-9.21262
▁legt	-9.21288
▁insgesamt	-9.21301
▁nutz	-9.21394
▁str	-9.21425
▁wechsel	-9.21452
▁dürfen	-9.21882
ika	-9.21911
licht	-9.22037
ris	-9.22082
▁stimme	-9.22088
▁orts	-9.22174
setzung	-9.22243
grün	-9.2229
▁trotz	-9.22415
ius	-9.22434
▁kaiser	-9.2247
▁trau	-9.22662
▁strecke	-9.22786
▁schuld	-9.229
▁trink	-9.22933
▁schüler	-9.23056
▁mittler	-9.23093
ierten	-9.23142
▁serie	-9.23394
▁bahnhof	-9.2341
innen	-9.23785
▁tot	-9.23876
steigen	-9.23958
▁mitglieder	-9.23973
gruppe	-9.24085
▁glaub	-9.24119
▁hauptsächlich	-9.24242
leitung	-9.24249
stätte	-9.24305
▁internationale	-9.24312
▁deck	-9.24336
▁förder	-9.24473
▁ni	-9.24586
▁österreich	-9.24618
▁familien	-9.24629
▁still	-9.24633
▁fin	-9.24677
dauer	-9.24713
▁schrieb	-9.24842
▁offenbar	-9.24914
▁fahrzeug	-9.24971
je	-9.25
▁ausbildung	-9.2504
▁kosten	-9.25133
wissenschaftlich	-9.25198
▁gering	-9.25241
selben	-9.25355
▁ti	-9.25369
▁port	-9.25384
▁tri	-9.25439
▁pri	-9.2547
schließlich	-9.25737
▁baum	-9.25809
▁glauben	-9.2581
mat	-9.25843
▁mor	-9.25854
▁glas	-9.25919
▁paris	-9.26146
wald	-9.26158
▁gl	-9.26184
▁schrift	-9.26191
fläche	-9.26228
▁rede	-9.26381
mus	-9.26385
▁oh	-9.26609
▁regelmäßig	-9.26672
▁mund	-9.26732
▁bezeichnung	-9.26735
arzt	-9.26758
▁motor	-9.26774
ette	-9.26957
▁angebot	-9.27053
▁verkehrs	-9.27117
▁völlig	-9.27273
▁relativ	-9.27273
▁internet	-9.27277
rang	-9.27395
▁heimat	-9.27425
▁ruf	-9.27487
▁provinz	-9.27518
▁hände	-9.27605
▁grenze	-9.27621
▁unterschied	-9.27636
richten	-9.27783
nach	-9.27897
▁fußball	-9.27899
▁lernen	-9.27908
▁ke	-9.27926
▁sprechen	-9.28016
▁feld	-9.28042
karte	-9.28118
▁kriegs	-9.28242
▁glück	-9.28295
▁einigen	-9.28314
▁min	-9.28453
▁zwölf	-9.28511
by	-9.28551
▁bre	-9.28566
▁entsprechend	-9.28595
▁fried	-9.28793
▁dinge	-9.28803
▁größere	-9.29067
▁ph	-9.29079
▁südlich	-9.29126
▁mann	-9.29191
▁hof	-9.29426
▁chi	-9.29544
old	-9.29741
▁sofort	-9.29766
effekt	-9.29766
▁münchen	-9.29768
führen	-9.29777
▁schreiben	-9.29779
▁mach	-9.29785
arm	-9.29804
▁stra	-9.29806
▁zi	-9.29813
▁zeug	-9.29827
▁hervor	-9.29828
▁stil	-9.29834
▁konnten	-9.29878
zog	-9.30205
▁bauch	-9.30333
prüf	-9.30371
▁ton	-9.30378
▁schmeckt	-9.30398
▁geprägt	-9.30398
▁vorhanden	-9.30404
▁interesse	-9.30414
ingen	-9.30429
fahrer	-9.30431
nfalls	-9.30529
▁verschieden	-9.30561
spieler	-9.30597
buch	-9.30628
turm	-9.30643
▁bal	-9.30709
▁ganzen	-9.30724
blätter	-9.30744
ologie	-9.30747
▁derzeit	-9.30759
▁westlich	-9.30818
pass	-9.30908
▁mon	-9.30928
▁zieht	-9.31038
▁fiel	-9.31234
namen	-9.31345
▁jedem	-9.31351
let	-9.3145
▁museum	-9.31466
▁meister	-9.31532
▁meistens	-9.31596
führt	-9.31686
▁übernahm	-9.31704
▁vergleich	-9.31707
▁trotzdem	-9.31764
ath	-9.3188
▁literatur	-9.31947
▁back	-9.32022
▁ball	-9.32041
▁fern	-9.32149
▁christ	-9.32184
gericht	-9.32224
▁bilden	-9.32249
▁technisch	-9.32321
▁links	-9.32322
▁pflanzen	-9.32354
ände	-9.32498
witz	-9.32499
▁kampf	-9.32561
▁kennt	-9.32589
▁zahl	-9.32606
▁spricht	-9.32639
▁jeweil	-9.32724
▁eh	-9.32796
▁gesagt	-9.32816
val	-9.32974
▁gewisse	-9.32975
ly	-9.33137
▁j	-9.33164
▁programm	-9.33216
▁mess	-9.33224
schluss	-9.33229
▁folgen	-9.33258
schütz	-9.33284
▁geschäfts	-9.33325
familie	-9.33368
verwaltung	-9.33476
ück	-9.33505
▁gesamt	-9.33583
▁äußer	-9.33624
▁general	-9.33629
▁tro	-9.3368
▁studium	-9.33736
die	-9.33766
▁bücher	-9.33782
▁ber	-9.33835
▁beginnt	-9.33872
▁thema	-9.33963
gebäude	-9.34038
lose	-9.34194
leit	-9.3422
▁dient	-9.34229
▁gewählt	-9.34282
▁verbunden	-9.34286
stärke	-9.34296
brü	-9.34442
▁erfolgt	-9.34528
▁einfluss	-9.34704
▁kindern	-9.34713
▁lebte	-9.3475
▁anderer	-9.34766
▁sonne	-9.34802
▁verstehen	-9.34806
▁wetter	-9.3495
anstalt	-9.34951
▁wichtigste	-9.34964
lief	-9.34992
▁daraus	-9.34992
ativ	-9.35128
▁fährt	-9.35207
▁steck	-9.35287
▁tauch	-9.35304
▁vertrag	-9.35359
iell	-9.35369
▁deutsch	-9.35391
unter	-9.35532
▁staat	-9.35592
spruch	-9.35612
▁enthält	-9.35654
▁sinn	-9.35665
▁tragen	-9.35718
bogen	-9.35732
▁dicht	-9.35784
mannschaft	-9.35843
▁europäische	-9.35904
mlich	-9.35944
kunde	-9.35946
kal	-9.36038
sätze	-9.36084
▁modell	-9.36265
förmig	-9.36282
▁männer	-9.36283
fest	-9.36329
kurs	-9.3644
ost	-9.36468
▁gestern	-9.36506
▁gesicht	-9.36723
ac	-9.36756
▁spar	-9.36796
bra	-9.36835
kauf	-9.36942
▁linie	-9.37004
▁anderes	-9.37047
mäßig	-9.37127
gemeinschaft	-9.37146
sweise	-9.37164
▁kennen	-9.37271
▁finanz	-9.37313
▁stern	-9.37326
▁personen	-9.37376
▁trägt	-9.37384
▁nähe	-9.37396
win	-9.374
hält	-9.3744
hundert	-9.37442
deutsch	-9.37486
stet	-9.37489
▁beschäftigt	-9.37638
leiste	-9.37641
wort	-9.377
off	-9.37726
▁tal	-9.3773
yl	-9.37813
ock	-9.37861
▁tages	-9.38089
krieg	-9.38149
▁stau	-9.38175
▁gegeben	-9.38192
▁hund	-9.38285
band	-9.38345
▁gib	-9.38347
▁trug	-9.38348
▁schreib	-9.38378
▁runde	-9.38452
▁dach	-9.38468
▁nor	-9.38581
richter	-9.38599
▁sammel	-9.38713
gegangen	-9.38724
brechen	-9.38818
wechsel	-9.38862
▁international	-9.38935
ay	-9.39
▁tatsächlich	-9.39013
▁älteste	-9.39013
▁hilfe	-9.39098
▁heim	-9.39158
▁galt	-9.39192
▁automatisch	-9.39261
▁end	-9.39267
ica	-9.39338
jährige	-9.39342
▁temperatur	-9.39367
▁fehler	-9.3937
▁zuvor	-9.39433
▁mari	-9.39487
anlage	-9.39494
▁setzte	-9.39506
▁pre	-9.39534
▁tat	-9.39608
imm	-9.39651
betrieb	-9.39655
▁produktion	-9.39683
▁beliebt	-9.39707
stuhl	-9.39711
▁besitzt	-9.39755
▁besuch	-9.39758
▁au	-9.3982
▁schauspieler	-9.39968
▁erster	-9.39997
▁ziehen	-9.40044
▁dick	-9.40069
▁app	-9.40198
▁politik	-9.40255
körper	-9.4029
▁gericht	-9.40322
▁ve	-9.40352
▁tre	-9.40383
▁bloß	-9.40407
dia	-9.40415
änderung	-9.40438
▁chor	-9.4045
steuer	-9.40474
▁fehlt	-9.40481
▁zentrum	-9.40509
▁stellte	-9.40528
▁armee	-9.40657
dy	-9.40687
▁glaube	-9.4083
▁folgte	-9.40865
▁kamen	-9.40896
▁politische	-9.40929
▁com	-9.40964
▁haar	-9.40996
zentrum	-9.41008
handlung	-9.41032
▁streit	-9.41066
▁rhein	-9.41111
▁hell	-9.41113
▁erneut	-9.41114
▁verwenden	-9.41116
▁bekommen	-9.41162
wachs	-9.41166
▁finger	-9.41178
▁organ	-9.41215
▁tanz	-9.4123
▁steuer	-9.41245
rot	-9.41258
▁album	-9.41282
▁peter	-9.41412
pfen	-9.41481
hilfe	-9.41734
kehr	-9.41747
▁liste	-9.41763
▁schwierig	-9.41819
▁frankreich	-9.41833
▁hohen	-9.41883
sprung	-9.41886
▁überwiegend	-9.41949
rand	-9.4206
▁schwe	-9.42086
▁jahres	-9.42128
▁bett	-9.42213
iker	-9.42229
▁bank	-9.4226
▁norden	-9.42394
über	-9.42474
fälle	-9.42489
▁helfen	-9.42534
kräfte	-9.42534
▁probleme	-9.4255
red	-9.42557
▁silber	-9.4257
▁ebenso	-9.42577
▁wand	-9.42671
▁folgten	-9.42683
▁sam	-9.42688
▁mö	-9.42716
insel	-9.42737
▁bringen	-9.42781
▁stamm	-9.4291
▁fliegen	-9.43059
▁satz	-9.4307
▁kraft	-9.43136
▁schutz	-9.43185
gezogen	-9.43233
blick	-9.43268
▁stell	-9.4336
▁straf	-9.43372
glieder	-9.43392
sport	-9.43446
▁erreicht	-9.43519
ahn	-9.43575
▁nahe	-9.4363
▁fehl	-9.43743
▁gruppen	-9.43951
▁university	-9.43978
▁ledig	-9.43981
▁wappen	-9.44012
▁gebaut	-9.44039
▁verd	-9.44072
▁süden	-9.44083
stö	-9.44196
▁gelb	-9.44199
pper	-9.44208
▁größten	-9.44233
▁ernst	-9.4424
▁meter	-9.44391
stern	-9.44597
▁lesen	-9.44659
arten	-9.44665
▁friedrich	-9.44721
▁ergebnis	-9.44724
▁ehren	-9.44739
▁vollständig	-9.44744
lager	-9.44797
▁umfasst	-9.44888
▁teile	-9.44985
▁mer	-9.45032
▁beruf	-9.45237
▁industrie	-9.45385
▁bekommt	-9.45446
▁überall	-9.4545
schließ	-9.45601
▁schritt	-9.45738
▁johann	-9.4581
arch	-9.45839
bus	-9.45965
▁hören	-9.46003
▁fo	-9.46004
▁arten	-9.46151
▁lauf	-9.46155
▁verfügt	-9.46184
stock	-9.46193
technik	-9.46193
prüfung	-9.46216
▁militär	-9.46219
preis	-9.46349
▁reihe	-9.46351
▁verwaltungs	-9.46361
tät	-9.46361
weiß	-9.46377
▁karl	-9.46394
▁garten	-9.46503
▁typ	-9.46545
▁dank	-9.46555
▁lösung	-9.46691
▁kamera	-9.4675
▁treffen	-9.46752
ian	-9.46762
ther	-9.4683
▁wechselte	-9.46896
▁leitet	-9.46937
▁wissenschaft	-9.46945
▁red	-9.46971
▁wild	-9.46985
▁martin	-9.46997
▁dagegen	-9.47103
▁aufnahme	-9.47282
▁ed	-9.47385
▁bildung	-9.4739
▁seh	-9.47427
wind	-9.47473
▁regierung	-9.47522
gewiesen	-9.47684
▁beziehung	-9.47827
▁brenn	-9.47921
▁sc	-9.47978
▁verloren	-9.48032
▁entstand	-9.48107
hand	-9.48348
▁monate	-9.48386
org	-9.48434
▁london	-9.48441
▁köln	-9.48446
▁treib	-9.4847
▁vogel	-9.48515
▁mehrfach	-9.48588
▁sing	-9.48594
ball	-9.48723
▁schluss	-9.48761
anlagen	-9.48839
fü	-9.49001
▁schweiz	-9.49011
▁hört	-9.4903
▁ag	-9.49088
▁miteinander	-9.49148
▁energie	-9.49205
▁nachfolger	-9.49209
▁brachte	-9.4924
▁stich	-9.49314
frage	-9.49367
▁anzu	-9.49514
▁westen	-9.49696
▁real	-9.49734
▁con	-9.4978
ini	-9.49872
▁müll	-9.49913
▁politisch	-9.49972
▁entscheidung	-9.49973
▁befand	-9.49973
▁gelten	-9.50045
▁beendet	-9.50054
flügel	-9.50055
▁song	-9.50114
▁institut	-9.50158
hängen	-9.50181
cho	-9.50285
pflicht	-9.50297
▁zwanzig	-9.50298
▁haut	-9.50322
schul	-9.50462
tausch	-9.50488
▁zweck	-9.5051
▁präsident	-9.50669
▁vorbei	-9.50695
stehen	-9.50705
▁hü	-9.50732
▁egal	-9.50749
▁unabhängig	-9.50768
▁enthalten	-9.50863
ara	-9.50885
sicher	-9.50955
▁zuerst	-9.50997
ari	-9.51016
stoffe	-9.51051
▁studien	-9.51154
▁feier	-9.5127
▁schwester	-9.51313
sort	-9.51341
▁bringt	-9.51398
hütte	-9.51424
▁reis	-9.51434
▁möglichkeit	-9.515
▁technik	-9.51519
▁erklärt	-9.51529
▁benutzt	-9.5153
▁lokal	-9.51568
▁zwar	-9.51606
▁firma	-9.51628
▁gegensatz	-9.51644
maschine	-9.51667
sieg	-9.51739
▁radio	-9.51788
▁suche	-9.51853
▁frisch	-9.51943
▁spät	-9.52057
▁entscheide	-9.5212
horn	-9.52303
▁erstmals	-9.52319
▁john	-9.52325
▁grau	-9.52424
▁trainer	-9.52506
uß	-9.52556
▁wagen	-9.52561
gl	-9.52602
fuhr	-9.52706
treffen	-9.5295
finale	-9.53013
▁pal	-9.5303
fo	-9.53073
wende	-9.53099
▁entfernt	-9.5311
medaille	-9.5311
▁erschien	-9.53116
takt	-9.53124
gänge	-9.53132
▁pan	-9.53165
▁schlacht	-9.53171
▁verfahren	-9.53173
hu	-9.53213
▁cor	-9.53232
runde	-9.53235
kraft	-9.53291
kette	-9.53366
▁gesetz	-9.53381
▁ring	-9.5349
▁prozess	-9.53556
▁leucht	-9.53578
▁liga	-9.53664
▁jung	-9.53704
hard	-9.53759
don	-9.53903
▁zuletzt	-9.53911
▁einwohner	-9.53917
▁gespielt	-9.53927
▁drauf	-9.53955
▁wider	-9.54006
fasst	-9.54011
▁dauert	-9.54041
▁zuständig	-9.54056
kuchen	-9.54103
leistung	-9.54115
▁passiert	-9.54131
▁sag	-9.54201
äre	-9.54374
▁antwort	-9.54408
▁geb	-9.54497
▁elf	-9.54538
▁nimm	-9.54577
▁verhalten	-9.54588
geteilt	-9.54661
▁wirtschafts	-9.54798
herr	-9.54888
▁zeigen	-9.54998
well	-9.5507
lü	-9.55254
ino	-9.5534
▁ständig	-9.55488
▁frag	-9.55527
▁unterstützt	-9.55529
▁öffne	-9.55529
▁östlich	-9.5553
▁klassische	-9.55532
▁überrasch	-9.55534
▁scheint	-9.55583
▁spring	-9.55596
▁gö	-9.55606
▁entstehen	-9.55606
▁wohnung	-9.55681
uf	-9.55682
▁friedhof	-9.55777
▁char	-9.55949
titel	-9.56081
kammer	-9.56119
▁wächst	-9.56349
▁praktisch	-9.5635
▁erkennen	-9.56353
▁hab	-9.56383
▁wirtschaftlich	-9.56404
wissenschaften	-9.56408
▁schwerpunkt	-9.56428
▁auszu	-9.56431
▁lautet	-9.56709
▁mä	-9.56725
ktion	-9.56776
▁treten	-9.56776
▁stimmt	-9.56865
hausen	-9.56887
produkt	-9.56961
▁existiert	-9.57176
▁alternativ	-9.57176
▁fallen	-9.57195
▁siedlung	-9.57261
gar	-9.57287
▁hei	-9.57288
abteilung	-9.574
▁milch	-9.57462
▁euro	-9.57536
▁verlassen	-9.57536
▁ecke	-9.57731
reise	-9.57909
träge	-9.5792
▁korrekt	-9.57963
▁heutigen	-9.57985
▁geworden	-9.58009
▁kaffee	-9.58009
▁aktuell	-9.58009
▁rauch	-9.5807
▁reichs	-9.58083
▁passt	-9.58147
▁platt	-9.5832
▁tätigkeit	-9.58334
▁eier	-9.58339
▁lager	-9.5847
ov	-9.58527
▁rote	-9.58547
▁erreichte	-9.58582
▁sucht	-9.58662
lag	-9.58731
▁motiv	-9.588
fähig	-9.58817
▁gebrauch	-9.58856
maßnahmen	-9.58857
▁baby	-9.5888
▁entwickelte	-9.58913
▁britische	-9.58931
vier	-9.58948
ya	-9.58957
denken	-9.59006
▁historische	-9.59041
▁verläuft	-9.59095
▁traum	-9.5918
▁pla	-9.59209
ober	-9.59217
▁wal	-9.5928
▁geschrieben	-9.59321
▁meinung	-9.5933
flug	-9.59335
sucht	-9.59384
▁spezial	-9.59428
läuft	-9.59449
cu	-9.59466
▁bus	-9.595
alter	-9.59539
▁konzert	-9.59557
▁entwickelt	-9.59633
▁beteiligt	-9.59697
plätze	-9.59697
▁erlaubt	-9.59697
methode	-9.59698
▁verbreitet	-9.59701
▁wunder	-9.59718
▁charakter	-9.59718
▁air	-9.59956
züge	-9.60046
▁jen	-9.60145
ial	-9.60159
▁laufen	-9.60264
ana	-9.60354
ologische	-9.60432
▁hause	-9.60445
▁flugzeug	-9.60514
▁abzu	-9.60542
▁sogenannte	-9.60551
▁mädchen	-9.60552
▁extrem	-9.60552
gespräch	-9.60552
▁gebe	-9.60594
gymnasium	-9.60705
▁brand	-9.6073
▁bern	-9.60734
gro	-9.60735
▁angriff	-9.60752
▁rücken	-9.60765
oli	-9.6083
▁kasse	-9.60858
grad	-9.60899
wohn	-9.609
halle	-9.60908
▁turm	-9.60979
▁maschinen	-9.61043
▁schach	-9.61096
▁bier	-9.611
komm	-9.61132
▁version	-9.61196
arbeiten	-9.61249
▁leiden	-9.61268
▁wander	-9.61299
▁zukunft	-9.61413
▁york	-9.61414
▁böse	-9.61419
▁maschine	-9.61629
▁regeln	-9.61761
▁test	-9.61779
▁bot	-9.61845
▁einzelnen	-9.61872
▁verband	-9.61873
▁bewegung	-9.61983
▁amerikanische	-9.62062
▁diente	-9.62211
▁forschungs	-9.62243
ski	-9.62256
▁hängt	-9.62284
▁bio	-9.62299
haltung	-9.62372
▁schützen	-9.6238
▁funktioniert	-9.62449
▁juli	-9.62459
▁transport	-9.62493
▁tisch	-9.62536
hob	-9.62658
otten	-9.62666
▁zeitung	-9.62702
inger	-9.62819
▁wichtig	-9.62937
zeitig	-9.63107
küste	-9.63153
▁schriftsteller	-9.63161
▁vermutlich	-9.63161
▁gründung	-9.63161
▁diverse	-9.63163
▁beispielsweise	-9.63182
▁fühlt	-9.63187
theorie	-9.6319
▁hielt	-9.63213
▁erreichen	-9.63235
▁kunden	-9.63241
▁hit	-9.63276
▁lieb	-9.63285
▁landschaft	-9.63337
fassen	-9.63428
▁profi	-9.63549
farbe	-9.63578
stil	-9.63601
wil	-9.63637
▁reichen	-9.63714
▁alb	-9.63927
üll	-9.64031
▁längst	-9.6404
▁katholisch	-9.64045
▁zerstört	-9.64045
undzwanzig	-9.6405
▁par	-9.64188
auftrag	-9.64215
▁pra	-9.64293
▁anwendung	-9.64338
▁erde	-9.64473
ci	-9.64512
▁würden	-9.64515
schuss	-9.64583
dach	-9.6464
prä	-9.64664
▁ze	-9.64668
▁schwarze	-9.64893
▁stabil	-9.64913
▁produziert	-9.64938
á	-9.64938
▁üblich	-9.64938
▁frankfurt	-9.64941
▁fremd	-9.64942
▁herrschaft	-9.65027
▁monat	-9.65125
▁schlag	-9.65205
▁nachbarn	-9.65286
▁weich	-9.65469
▁maria	-9.65587
▁einzelne	-9.65601
ance	-9.65643
▁absolvierte	-9.65803
zel	-9.65823
▁geburt	-9.6584
▁veranstaltung	-9.65843
▁küche	-9.65861
▁para	-9.65875
▁zahn	-9.65888
▁betrieben	-9.6593
liga	-9.6596
▁reise	-9.65981
▁bauern	-9.65986
▁idee	-9.6646
▁erzähl	-9.6666
rett	-9.6667
▁kommst	-9.66691
▁cu	-9.66719
▁original	-9.66748
▁computer	-9.66748
▁söhne	-9.66748
▁wilhelm	-9.66748
▁doktor	-9.66748
▁durchgeführt	-9.66748
▁mindestens	-9.66749
▁flasche	-9.66757
jo	-9.66769
▁geschlossen	-9.66791
▁franz	-9.66805
verbot	-9.66816
lenk	-9.66833
▁rechte	-9.66854
denkmal	-9.66865
▁brauchen	-9.669
machen	-9.6693
▁cla	-9.66997
▁öl	-9.6704
▁zugleich	-9.6713
▁ruhe	-9.67275
kreuz	-9.67281
lehrer	-9.67287
nummer	-9.67297
▁schreibt	-9.67321
▁amts	-9.67362
▁rand	-9.67413
▁gehalten	-9.67467
▁eisenbahn	-9.67491
▁auge	-9.67547
rolle	-9.67596
geschwindigkeit	-9.67665
▁symbol	-9.67665
fabrik	-9.67666
▁verzicht	-9.67666
▁null	-9.67715
▁sprachen	-9.6775
pol	-9.67806
▁geschäft	-9.67827
▁könnten	-9.6789
▁entscheidend	-9.67961
▁sonnen	-9.67981
▁anlage	-9.68021
nennt	-9.68034
▁dü	-9.68082
▁vereins	-9.68223
▁erfolgte	-9.68294
▁güter	-9.68308
▁eu	-9.68367
▁pat	-9.68412
kirch	-9.68447
markt	-9.68483
geschoss	-9.68544
▁typisch	-9.68576
▁evangelisch	-9.68591
▁grundsätzlich	-9.68591
▁umgebung	-9.68591
geschlecht	-9.68597
▁brief	-9.68602
▁versteht	-9.6872
▁geführt	-9.68906
▁hor	-9.68919
schl	-9.68942
▁gelände	-9.68994
post	-9.69022
▁nachbar	-9.69041
liste	-9.69067
bereit	-9.69173
▁oper	-9.69294
stall	-9.69316
▁rang	-9.69393
▁willst	-9.69441
länge	-9.69506
▁county	-9.69526
▁entschied	-9.69526
▁publikum	-9.69526
▁jünger	-9.69526
▁flughafen	-9.69532
▁höchste	-9.69571
▁wolf	-9.6961
▁zucker	-9.69639
▁danke	-9.69714
▁zeitschrift	-9.69813
rennen	-9.69829
▁zeitpunkt	-9.69872
▁osten	-9.69873
▁fett	-9.69876
ley	-9.69948
▁doppel	-9.70026
ordnung	-9.70156
verein	-9.70173
▁versuchen	-9.70183
kämpfe	-9.70418
pflanze	-9.70431
▁digital	-9.70469
▁situation	-9.70469
▁weitgehend	-9.7047
▁medien	-9.70505
▁kontakt	-9.70519
▁bibliothek	-9.70546
▁mode	-9.70554
akte	-9.70577
▁china	-9.70612
▁berufs	-9.70665
liegen	-9.7067
geht	-9.70776
▁spitze	-9.70902
▁lief	-9.70931
▁spiegel	-9.71044
▁maß	-9.71061
bezirk	-9.71103
häuser	-9.71104
▁fleisch	-9.71161
fried	-9.71203
▁ski	-9.71205
bombe	-9.71228
▁artikel	-9.71239
▁che	-9.71317
▁kol	-9.71354
schneid	-9.7136
▁star	-9.7139
▁benötigt	-9.71422
▁plötzlich	-9.71422
▁zoll	-9.71425
▁geplant	-9.71438
▁eingang	-9.71466
fassung	-9.71467
▁landkreis	-9.71494
▁katze	-9.71533
▁schnitt	-9.7155
schalten	-9.71554
▁republik	-9.71565
▁aufgenommen	-9.7163
▁verfasst	-9.71717
▁bäume	-9.7187
▁kontroll	-9.71875
▁mitarbeiter	-9.71953
▁video	-9.71959
rauch	-9.7196
▁beigesetzt	-9.71999
▁bur	-9.72031
bringen	-9.72101
quelle	-9.72166
▁wach	-9.72176
geber	-9.72213
▁prinzip	-9.72286
bär	-9.72331
▁bedeutende	-9.72376
club	-9.72392
▁mel	-9.72397
▁dunkel	-9.72401
▁darunter	-9.72409
star	-9.72423
▁themen	-9.72427
▁denke	-9.72439
▁bereit	-9.72481
▁wem	-9.72633
▁bisschen	-9.72764
zutage	-9.72771
klasse	-9.72849
▁position	-9.72881
▁rum	-9.72956
▁roll	-9.73083
bürger	-9.73094
▁vorstellung	-9.73125
▁quer	-9.73286
waffe	-9.73291
▁august	-9.73354
▁gelegentlich	-9.73363
höfe	-9.73434
▁bezeichnen	-9.73509
gäste	-9.73522
▁zweifel	-9.73713
sache	-9.73728
▁gern	-9.73825
tha	-9.74201
kampf	-9.74203
ndel	-9.74208
gerechnet	-9.74211
trop	-9.74312
▁frank	-9.74318
▁freiwillig	-9.74335
▁knochen	-9.74339
▁stadtteil	-9.74344
▁erwachsene	-9.74353
▁fahrrad	-9.74372
papier	-9.74399
▁mond	-9.7448
▁hätten	-9.74488
▁großer	-9.746
▁ausnahme	-9.74609
▁zweimal	-9.74803
▁play	-9.7487
▁wärme	-9.75193
▁religion	-9.75325
▁gleichnamige	-9.75325
▁soldat	-9.75334
▁hafen	-9.75438
meld	-9.75478
▁lau	-9.75501
▁toll	-9.75502
▁trans	-9.75625
▁beton	-9.75725
pack	-9.75749
reihe	-9.75752
▁konzept	-9.75836
▁professor	-9.75856
büro	-9.75884
ali	-9.75911
wertung	-9.75913
wie	-9.75922
stufe	-9.7597
▁unver	-9.76013
▁koch	-9.76066
▁tour	-9.76066
▁instrument	-9.76087
bücher	-9.76109
▁handy	-9.76129
▁vertreter	-9.76133
▁stammen	-9.76168
▁mittelalter	-9.76172
istischen	-9.76178
▁bü	-9.76188
▁trag	-9.7621
staat	-9.76289
▁funk	-9.76317
geleitet	-9.7634
▁hunger	-9.76343
▁zunehmend	-9.76376
▁entgegen	-9.76412
▁england	-9.76432
rry	-9.76445
▁handels	-9.76517
▁linke	-9.76614
lied	-9.76643
fleck	-9.76751
▁schade	-9.76809
▁kron	-9.76936
▁sänger	-9.76956
programm	-9.77148
▁darin	-9.77168
stimmung	-9.77329
bauten	-9.77333
▁telefon	-9.77335
▁zählen	-9.77335
▁himmel	-9.77335
▁signal	-9.77335
▁schieß	-9.77347
▁brücke	-9.77349
▁jungen	-9.77375
▁standort	-9.77397
part	-9.77507
▁vertreten	-9.77819
fahr	-9.77863
presse	-9.78036
▁irgendw	-9.78121
pft	-9.78211
teilung	-9.78215
▁schaffen	-9.7823
▁bilder	-9.78233
verband	-9.78282
▁notwendig	-9.78355
versorgung	-9.78356
▁unbedingt	-9.78356
▁michael	-9.78357
ria	-9.78371
▁italienische	-9.78477
front	-9.78507
stab	-9.78717
spur	-9.78737
olog	-9.78757
▁besucher	-9.78781
▁heut	-9.78974
▁regierungs	-9.79008
geist	-9.79256
▁künstlich	-9.79386
▁prozent	-9.79388
▁entdeckt	-9.79391
▁entspricht	-9.79416
▁gestellt	-9.7943
▁pferde	-9.79435
▁vereinigt	-9.79456
utz	-9.7955
▁abgeschlossen	-9.79586
▁stunde	-9.79595
▁sache	-9.79649
▁staaten	-9.79705
blumen	-9.79747
geld	-9.7979
bb	-9.79897
schnitt	-9.79988
grenze	-9.80305
arbeiter	-9.80419
▁töchter	-9.80428
▁heinrich	-9.80428
▁belegt	-9.8043
▁gedanken	-9.80432
▁trocken	-9.80433
▁römische	-9.80435
streckt	-9.8044
▁wende	-9.80481
▁verwendung	-9.80578
▁ähnliche	-9.80631
▁gedicht	-9.80737
▁blatt	-9.80761
▁web	-9.8078
gerichtet	-9.80788
▁näher	-9.80801
kapelle	-9.80846
▁vorne	-9.81076
▁fläche	-9.81126
▁müsst	-9.81181
wunde	-9.8119
ula	-9.81195
▁struktur	-9.81207
mark	-9.8129
▁fahrt	-9.81359
siedlung	-9.81371
▁dor	-9.81446
fertig	-9.81455
▁vermeiden	-9.8148
▁griechisch	-9.8148
▁speziell	-9.8148
▁erheblich	-9.81481
▁unmittelbar	-9.81481
qui	-9.81495
bald	-9.81504
▁gezogen	-9.81576
▁ausgezeichnet	-9.81683
strich	-9.81756
▁sinne	-9.81758
hang	-9.8184
▁ausstellung	-9.81853
▁fließt	-9.81893
▁kern	-9.82008
packung	-9.82046
gelegenheit	-9.82052
streich	-9.82141
weil	-9.82142
▁züge	-9.8215
▁verkehr	-9.82177
▁füll	-9.82266
▁rock	-9.82313
▁zahlen	-9.82346
reaktion	-9.82383
har	-9.82431
▁top	-9.82442
▁organisation	-9.82461
akademie	-9.82544
▁erinnert	-9.82544
verletzung	-9.82545
▁bischof	-9.82547
▁voraus	-9.82548
▁klingt	-9.8255
▁russisch	-9.8255
bildung	-9.82551
▁anwalt	-9.82552
bund	-9.82571
▁kehrte	-9.82588
motor	-9.82604
▁weltweit	-9.82622
alität	-9.82678
▁letzt	-9.82721
▁boot	-9.82725
tive	-9.82733
beutel	-9.82734
▁darum	-9.82747
wüste	-9.82772
▁wenigsten	-9.82797
chi	-9.82882
▁bekannteste	-9.82964
way	-9.82968
▁blätter	-9.83033
▁braun	-9.8306
artig	-9.83065
▁figur	-9.83097
▁nachrichten	-9.83215
▁mont	-9.83288
▁bezirk	-9.83404
klappe	-9.8348
▁wehr	-9.83491
pri	-9.83519
▁weh	-9.83564
▁gefallen	-9.83587
▁eingestellt	-9.83593
würfe	-9.83612
▁komponist	-9.83619
▁schlüssel	-9.83622
▁gewalt	-9.83623
▁schlimm	-9.83657
▁gegenseitig	-9.83671
▁erzielt	-9.83677
▁leer	-9.83724
▁viertel	-9.83741
▁statu	-9.83749
▁person	-9.83772
▁auftritt	-9.83799
▁meer	-9.83864
isse	-9.83908
▁häuser	-9.83981
▁sau	-9.84016
▁vorder	-9.84039
wissenschaft	-9.84048
zweig	-9.84148
zo	-9.8424
▁bach	-9.8425
spende	-9.84282
wochenende	-9.84351
istische	-9.84375
dro	-9.84427
wing	-9.84445
▁anschluss	-9.84565
▁gründen	-9.8459
ani	-9.84666
geschlossen	-9.84692
▁moment	-9.847
▁getrennt	-9.84706
▁hälfte	-9.84706
▁betroffen	-9.84706
▁college	-9.84706
vögel	-9.84707
▁pfarr	-9.84708
▁klavier	-9.84722
▁todes	-9.84728
▁spaß	-9.84732
▁krank	-9.84734
▁zusammenhang	-9.84752
forderung	-9.84758
zimmer	-9.84772
▁jahrhundert	-9.84774
▁herzog	-9.84779
▁verkauf	-9.84783
deln	-9.84877
▁brot	-9.84999
▁tritt	-9.85011
▁personal	-9.8508
boden	-9.85117
▁minister	-9.85129
welt	-9.85148
dian	-9.85153
gruppen	-9.85301
▁holt	-9.85391
▁medizin	-9.85413
kleid	-9.85506
▁fühle	-9.85533
▁unten	-9.85635
▁dumm	-9.85704
▁leichter	-9.85738
▁volk	-9.85792
ó	-9.85805
▁widmet	-9.85805
wörter	-9.85806
studio	-9.85806
▁südwest	-9.85806
rechnung	-9.85809
spannung	-9.85819
fähigkeit	-9.85847
▁aussage	-9.8587
▁verboten	-9.8589
brücke	-9.85914
funde	-9.85946
wick	-9.85953
▁suchen	-9.86142
▁software	-9.86272
▁blu	-9.86337
▁schwein	-9.86509
▁gewicht	-9.86553
▁rom	-9.86604
▁könnt	-9.86685
▁schlagen	-9.86706
▁afrika	-9.86916
▁entstammt	-9.86916
▁nötig	-9.86917
▁kreativ	-9.86917
▁latein	-9.8693
▁schafft	-9.86932
▁gelesen	-9.86936
spreng	-9.86957
▁spanisch	-9.86987
▁angst	-9.86993
held	-9.87093
▁hoffen	-9.87101
text	-9.87127
▁chef	-9.87193
verbindung	-9.87224
▁heutige	-9.87592
▁absicht	-9.87623
wiegend	-9.87835
▁gefangen	-9.87912
variante	-9.88043
▁gegner	-9.88044
stoß	-9.88051
▁fotograf	-9.88065
▁leg	-9.88076
produktion	-9.88118
▁heb	-9.88126
▁gekommen	-9.88169
▁helm	-9.88171
▁jüdische	-9.88189
▁spa	-9.88239
▁beweis	-9.88252
▁flach	-9.88327
▁fein	-9.88377
▁laufe	-9.88432
▁schmal	-9.88471
▁nase	-9.88473
steiger	-9.88499
issen	-9.88776
zone	-9.88822
ai	-9.88891
säure	-9.88913
▁grad	-9.891
städt	-9.89103
▁militärische	-9.89123
▁salz	-9.89139
wärts	-9.89161
▁aktion	-9.8917
▁unbekannt	-9.89176
▁verfügung	-9.89176
▁besetzt	-9.89177
▁ändert	-9.89178
name	-9.89179
▁bewohner	-9.8918
mindest	-9.89212
▁standard	-9.89245
▁fluch	-9.89257
▁robert	-9.89268
▁schließen	-9.89274
▁hochschule	-9.89295
▁sicherheits	-9.8932
▁urteil	-9.89327
▁bor	-9.89327
▁hinten	-9.89376
▁ortschaft	-9.89377
▁frucht	-9.89395
stopp	-9.89404
▁wohnt	-9.89407
▁leid	-9.89413
▁gefahr	-9.89418
▁kochen	-9.89512
▁kühl	-9.89521
▁österreichische	-9.89602
▁ohren	-9.89718
schuhe	-9.89728
gefallen	-9.8974
▁verlor	-9.89813
bot	-9.90001
▁geheim	-9.90015
▁strecken	-9.90218
▁architekt	-9.90228
▁ausgestattet	-9.90326
▁speicher	-9.90326
▁positiv	-9.90326
▁termin	-9.90336
▁quellen	-9.90387
saft	-9.90415
industrie	-9.90417
projekt	-9.9042
braun	-9.90479
schlaf	-9.90493
menge	-9.90589
▁schalt	-9.90624
▁woher	-9.90676
▁mussten	-9.90708
▁eva	-9.90723
▁spi	-9.90734
ix	-9.90946
lichkeit	-9.9099
▁welch	-9.91127
▁ohr	-9.91144
gelaufen	-9.9126
▁tradition	-9.91285
offizier	-9.91489
▁journalist	-9.91489
▁untersuchung	-9.91489
▁hilft	-9.91489
▁wünsche	-9.91489
▁verlieh	-9.91489
▁ernannt	-9.91489
▁süß	-9.91489
▁bahnstrecke	-9.91497
gebrochen	-9.91501
▁entsteht	-9.91517
▁opfer	-9.91562
präsident	-9.91608
modell	-9.91643
▁legen	-9.91706
▁klaus	-9.9174
gerät	-9.91788
▁abschluss	-9.91865
▁orden	-9.91916
formation	-9.91973
▁adel	-9.92034
▁beamte	-9.92053
▁kohl	-9.92125
▁musiker	-9.92205
▁bedarf	-9.92278
▁laub	-9.92392
aktion	-9.92419
▁partner	-9.92442
raub	-9.92558
schrank	-9.92664
í	-9.92665
▁jüngst	-9.92665
▁niedrig	-9.92665
▁hersteller	-9.92666
▁kletter	-9.92666
▁verdient	-9.92671
▁damalige	-9.92674
▁reiß	-9.92698
▁andre	-9.92703
▁verstanden	-9.92723
wirkung	-9.92807
platte	-9.92969
▁nerv	-9.92981
▁hunde	-9.93002
▁tim	-9.93008
gefangen	-9.93019
direktor	-9.93287
▁material	-9.93384
fluss	-9.93404
▁schild	-9.93421
▁max	-9.93526
▁schwimm	-9.93663
▁konflikt	-9.93856
▁stuttgart	-9.93856
▁generation	-9.93858
▁qualität	-9.93875
▁rahmen	-9.93881
▁organisiert	-9.93888
vorsitzende	-9.93891
▁bürgermeister	-9.93898
▁menge	-9.9395
▁vorteil	-9.93977
▁kostenlos	-9.93992
theater	-9.94038
schläge	-9.94059
▁entwe	-9.94176
▁rennen	-9.94271
▁ordnung	-9.94283
brach	-9.94519
weist	-9.94672
▁wu	-9.94743
▁nochmal	-9.94955
wal	-9.9496
seitig	-9.9503
▁gegründet	-9.9506
▁gezeigt	-9.95061
▁nämlich	-9.95061
▁bronze	-9.95061
speise	-9.95063
schlüsse	-9.95068
▁feuerwehr	-9.95088
▁herrscht	-9.95092
▁verwandt	-9.95098
▁orange	-9.95104
▁dargestellt	-9.95114
ness	-9.95258
▁minute	-9.95329
mauer	-9.9535
kleidung	-9.95393
▁verkauft	-9.95427
▁sitzt	-9.9545
▁sachen	-9.95461
▁tipp	-9.95554
▁forschung	-9.95757
daten	-9.95967
▁leitung	-9.95972
▁tau	-9.96043
▁bericht	-9.96118
gut	-9.96146
▁super	-9.96161
▁dachte	-9.96224
▁basis	-9.96229
▁fragt	-9.96278
▁ludwig	-9.9628
▁beschrieben	-9.9628
▁leipzig	-9.9628
▁verließ	-9.9628
division	-9.9628
▁voice	-9.96281
▁ersetzt	-9.96281
▁niemals	-9.96283
▁protest	-9.96301
▁ermöglicht	-9.96311
▁waffen	-9.96344
dichte	-9.96345
▁sichtbar	-9.96355
▁lebensmittel	-9.96368
▁gestaltet	-9.96411
▁mühl	-9.9642
▁ewig	-9.96424
partner	-9.96585
▁schweizer	-9.96625
lohn	-9.96676
▁schwach	-9.96739
▁nummer	-9.96816
tiere	-9.96909
▁kal	-9.96974
gemäß	-9.97101
▁fotos	-9.97184
▁dokument	-9.97201
▁abhängig	-9.97307
▁sil	-9.97323
▁mauer	-9.97324
behörde	-9.9748
▁persönlich	-9.97482
▁goldene	-9.97488
▁gesundheit	-9.97536
▁informationen	-9.9755
▁kindergarten	-9.97551
▁herunter	-9.97592
brett	-9.97644
▁kino	-9.9769
▁traditionell	-9.97731
▁ausdruck	-9.97742
politik	-9.97783
universität	-9.97787
funktion	-9.97798
▁zunge	-9.97818
gerufen	-9.97977
elli	-9.98137
▁bezirks	-9.98179
▁ol	-9.98186
▁blei	-9.98213
▁fass	-9.98309
▁lügen	-9.98376
▁gesprochen	-9.98394
versuch	-9.98413
▁offizielle	-9.98702
▁kämpft	-9.98725
durch	-9.98756
▁bayern	-9.98765
▁engagiert	-9.98765
▁parallel	-9.98765
▁intensiv	-9.98765
▁brust	-9.98766
▁richtet	-9.98766
▁zivil	-9.98766
▁bedeutendste	-9.98767
▁sendung	-9.98773
▁musikalische	-9.98778
▁sterben	-9.98779
▁otto	-9.98779
▁sachsen	-9.98821
▁sicherheit	-9.98822
▁ufer	-9.98905
▁handlung	-9.98913
säule	-9.98947
▁diesmal	-9.98989
▁geschenk	-9.98994
flu	-9.99007
nimmt	-9.99126
▁ortsteil	-9.99158
▁spitz	-9.99167
▁sub	-9.99271
▁kabel	-9.99329
▁historisch	-9.99342
▁jugendliche	-9.99369
▁bundesliga	-9.99448
▁krankheit	-9.99777
▁erfahrung	-9.99827
lock	-9.99874
▁wirkung	-9.99909
rasse	-9.99999
▁verhindern	-10.0003
öffnung	-10.0003
▁täglich	-10.0003
zähne	-10.0003
▁übersetzt	-10.0003
▁praxis	-10.0003
▁gebildet	-10.0003
▁okay	-10.0003
▁kaputt	-10.0003
▁brüder	-10.0003
▁blind	-10.0003
▁zimmer	-10.0008
wurf	-10.0018
▁umwelt	-10.0025
▁lösen	-10.0026
▁kant	-10.0028
struktur	-10.0036
▁versehen	-10.006
barkeit	-10.0066
▁nah	-10.0069
park	-10.0093
▁gründe	-10.0107
▁irgendwa	-10.0113
▁grenz	-10.0114
▁feind	-10.0114
liegenden	-10.012
▁absolut	-10.0131
▁erklären	-10.0131
▁parlament	-10.0131
▁interessiert	-10.0131
▁wunsch	-10.0132
▁chance	-10.0132
▁erscheint	-10.0134
▁truppen	-10.0135
▁kostet	-10.0135
käse	-10.014
▁hotel	-10.0146
ford	-10.0147
rät	-10.0147
magnet	-10.0149
▁hass	-10.0152
agent	-10.0154
▁gegend	-10.0155
▁fred	-10.0159
▁szene	-10.0165
geschäft	-10.0168
kultur	-10.017
▁single	-10.0172
europa	-10.0173
▁muster	-10.0177
▁brems	-10.0192
▁code	-10.0193
einheit	-10.0195
gesetz	-10.0198
▁aufgestellt	-10.0205
▁tausend	-10.0209
vel	-10.0209
▁masse	-10.0217
▁fähr	-10.0218
▁grenzt	-10.0227
▁element	-10.0246
gesprochen	-10.0256
▁gal	-10.0257
▁hilfs	-10.0261
▁auffällig	-10.0261
▁thomas	-10.0261
▁student	-10.0261
lassung	-10.0261
rezept	-10.0262
sturz	-10.0264
▁schnee	-10.0264
▁common	-10.0264
▁angaben	-10.0265
▁lebensjahr	-10.0266
▁hals	-10.0275
▁strand	-10.0278
haupt	-10.0282
▁fu	-10.029
▁polar	-10.0294
▁hinein	-10.0295
▁verfassung	-10.0295
▁talent	-10.0301
zweck	-10.0301
saal	-10.0304
▁ausgesprochen	-10.0305
▁fund	-10.031
schreiben	-10.0316
▁wartet	-10.0316
reiter	-10.0322
▁maxim	-10.033
▁schick	-10.0337
▁brun	-10.034
▁anzahl	-10.034
▁nutzen	-10.0341
▁nu	-10.0357
▁col	-10.0362
holz	-10.0375
bindung	-10.0378
▁jahrzehnt	-10.0393
veröffentlichung	-10.0393
▁diskussion	-10.0393
▁hannover	-10.0393
▁hierfür	-10.0393
▁netzwerk	-10.0393
festival	-10.0394
geschmack	-10.0394
gewerbe	-10.0395
▁teuer	-10.0396
▁investi	-10.0397
▁klick	-10.0399
▁darstellung	-10.04
▁sprecher	-10.0401
▁fällen	-10.0402
gerissen	-10.0404
forscher	-10.0409
▁folgt	-10.0411
▁endet	-10.0421
▁ortes	-10.0427
▁davor	-10.043
▁passend	-10.0431
gewicht	-10.0436
▁foto	-10.0436
fleisch	-10.0437
museum	-10.0437
spitze	-10.0437
▁jeweilige	-10.0447
olf	-10.0468
ziehung	-10.05
▁kompliziert	-10.0526
▁existieren	-10.0526
▁joseph	-10.0526
▁lieblings	-10.0526
erkennung	-10.0526
ström	-10.0527
rekord	-10.0528
▁nahezu	-10.0536
▁ausgabe	-10.054
gleis	-10.0541
zellen	-10.0549
weltmeister	-10.056
▁regie	-10.0563
▁wiener	-10.0568
euer	-10.0572
bewegung	-10.0574
▁kata	-10.058
▁werfen	-10.0585
▁kräftig	-10.0586
operation	-10.0596
▁wollt	-10.0606
gramm	-10.0622
kanal	-10.0623
▁lind	-10.0641
▁leb	-10.0653
geworfen	-10.0661
läufig	-10.0661
▁vergangenheit	-10.0661
▁ausgebildet	-10.0661
kandidat	-10.0661
▁online	-10.0661
▁umstritten	-10.0661
▁angeblich	-10.0661
▁vorgänger	-10.0661
gebirge	-10.0661
▁verliert	-10.0662
stadion	-10.0662
▁bekam	-10.0663
fisch	-10.0663
▁camp	-10.0664
▁aufgeführt	-10.0664
legung	-10.0666
▁kulturelle	-10.067
▁ländern	-10.0673
▁hergestellt	-10.0676
▁übertragen	-10.068
▁lernte	-10.0688
▁guck	-10.0688
▁my	-10.0699
bad	-10.07
▁erzählt	-10.0706
lösung	-10.0722
▁gitarre	-10.0725
▁wachsen	-10.0742
dreh	-10.0756
ano	-10.0767
▁erhöht	-10.0798
▁geeignet	-10.0798
▁knapp	-10.0798
▁roboter	-10.0798
▁william	-10.0798
▁fieber	-10.0798
konstruktion	-10.0799
▁sowas	-10.0803
▁angesehen	-10.0804
▁kanton	-10.0806
▁zweitausend	-10.0811
anzeige	-10.0811
glück	-10.0813
block	-10.0814
▁angegeben	-10.0816
psycholog	-10.0816
▁cool	-10.0817
ländische	-10.0827
▁produkte	-10.0829
▁witt	-10.0831
▁schauspielerin	-10.0833
▁müller	-10.0835
▁messer	-10.0841
▁sammlung	-10.0847
▁verantwortlich	-10.085
material	-10.0853
▁pause	-10.0866
▁johannes	-10.0868
ausschuss	-10.0878
ash	-10.089
▁machst	-10.0896
getriebe	-10.0907
rseits	-10.0911
▁verhältnis	-10.0917
▁medizinische	-10.0919
schild	-10.0919
▁wettbewerb	-10.0923
ehlt	-10.0929
▁renn	-10.0931
▁geblieben	-10.0937
händler	-10.0937
▁besaß	-10.0937
verbrauch	-10.0939
krebs	-10.0939
stehende	-10.0941
filter	-10.0942
▁bewegt	-10.0942
▁dreck	-10.0943
▁hintergrund	-10.095
▁dünn	-10.0951
▁japan	-10.0957
zeichnung	-10.0959
beeren	-10.0981
tausend	-10.0983
bahnhof	-10.1002
läufer	-10.1006
▁betreten	-10.1006
▁überlegen	-10.1007
schließt	-10.1015
kenntnis	-10.1027
ction	-10.1031
▁freude	-10.1035
▁vorbild	-10.1041
kind	-10.1052
▁april	-10.1078
▁jährlich	-10.1078
▁apfel	-10.1078
▁gefährlich	-10.1078
merkmal	-10.1078
▁detail	-10.1079
▁ursprung	-10.1081
metall	-10.1081
▁bieten	-10.1082
▁stink	-10.1082
schuppen	-10.1085
▁straßenbahn	-10.1086
▁verteilt	-10.1086
▁merken	-10.1088
▁stahl	-10.1096
▁angenommen	-10.1098
stimme	-10.1105
ministerium	-10.1105
dank	-10.111
▁beiträge	-10.1113
▁schmi	-10.1117
wahl	-10.1125
▁einrichtung	-10.1126
▁union	-10.1126
▁angelegt	-10.1137
möglich	-10.1138
minister	-10.1139
geschrieben	-10.1141
prozess	-10.1141
▁riech	-10.1149
▁ferner	-10.1153
▁studie	-10.1155
hagen	-10.1168
▁job	-10.1182
▁heide	-10.1194
▁bewusst	-10.1218
disziplin	-10.1221
therapie	-10.1221
▁begrenzt	-10.1221
▁berühmt	-10.1221
▁solang	-10.1221
▁verbrachte	-10.1221
▁weiblich	-10.1221
▁besatzung	-10.1221
▁dunkle	-10.1221
▁zumeist	-10.1223
▁widerstand	-10.1228
▁zell	-10.1228
siebzig	-10.123
schwer	-10.1231
▁sturm	-10.1249
▁schlange	-10.1255
▁gründete	-10.1256
▁eth	-10.1257
ziel	-10.1267
rup	-10.128
▁beine	-10.1283
forschung	-10.1289
▁akt	-10.1308
▁gedacht	-10.1315
garten	-10.1318
malerei	-10.1335
▁schmerz	-10.1353
▁geöffnet	-10.1366
▁respekt	-10.1366
▁verändert	-10.1366
ingenieur	-10.1366
▁reagiert	-10.1366
training	-10.1366
▁erweitert	-10.1366
▁perfekt	-10.1366
▁christian	-10.1368
▁wertvolle	-10.1368
▁sorgt	-10.1369
kalender	-10.1377
▁antrieb	-10.1383
otter	-10.139
▁christlich	-10.1395
kenntnisse	-10.1425
position	-10.1434
temperatur	-10.1437
figur	-10.1437
marsch	-10.144
verfahren	-10.146
treue	-10.1463
low	-10.1466
cent	-10.147
▁turnier	-10.1478
▁engel	-10.1487
▁melde	-10.1487
ight	-10.1488
▁turn	-10.1488
▁philosophie	-10.1497
▁gelegen	-10.151
▁vulkan	-10.1513
kapitän	-10.1513
▁herkunft	-10.1513
▁ärger	-10.1513
▁verbrannt	-10.1513
physik	-10.1513
wälder	-10.1513
▁schreck	-10.1513
▁besiedelt	-10.1513
▁paket	-10.1514
▁gabriel	-10.1514
▁irgendein	-10.1515
▁behandelt	-10.1515
▁planeten	-10.1515
▁panzer	-10.1516
▁oberfläche	-10.1522
▁knie	-10.1528
▁passieren	-10.1534
spricht	-10.1584
▁angestellt	-10.1586
sperre	-10.1611
gehalt	-10.1625
▁aussehen	-10.1631
thal	-10.1638
▁programmier	-10.1639
siedel	-10.166
unddreißig	-10.1662
▁entwickeln	-10.1662
▁kommunikation	-10.1662
▁regisseur	-10.1662
▁ungefähr	-10.1662
▁kapital	-10.1662
▁erinnern	-10.1662
▁erkannt	-10.1662
▁verehrt	-10.1662
▁werbung	-10.1663
▁butter	-10.1663
▁wusste	-10.1663
▁ehrlich	-10.1666
gearbeitet	-10.1666
▁barock	-10.1667
▁stör	-10.1667
▁berichtet	-10.1684
▁zusammenarbeit	-10.169
ama	-10.1702
▁schale	-10.1704
▁betrachtet	-10.1712
▁schieb	-10.1724
▁schauspiel	-10.1736
karriere	-10.1743
legende	-10.1746
▁umgeben	-10.1757
luft	-10.1759
▁karten	-10.1762
besitz	-10.1766
▁gall	-10.1773
griffen	-10.1788
mehr	-10.179
▁japanische	-10.1793
▁sach	-10.1794
gefühl	-10.1797
braten	-10.1804
▁verlauf	-10.181
▁bestätigt	-10.1813
▁eröffnet	-10.1813
▁asteroid	-10.1813
▁urlaub	-10.1813
magazin	-10.1814
sprüche	-10.1814
▁männlich	-10.1814
▁scharf	-10.1814
▁ursache	-10.1816
▁riesige	-10.1816
▁tourismus	-10.1816
versicherung	-10.1818
▁jurist	-10.1822
▁kämpfen	-10.1822
▁autobahn	-10.1823
▁tank	-10.1826
verständnis	-10.183
lampe	-10.1832
typ	-10.184
▁bestandteil	-10.1842
▁freiburg	-10.1857
▁heiz	-10.1864
pokal	-10.1868
▁frühstück	-10.1871
lücke	-10.1871
fällt	-10.1877
strecke	-10.1879
förderung	-10.1908
▁eingerichtet	-10.1925
empfind	-10.1932
beruf	-10.1933
ebene	-10.1956
strahlung	-10.196
▁unterstützung	-10.1961
▁pferd	-10.1962
▁gesund	-10.1967
gouverneur	-10.1967
revolution	-10.1967
▁beeinflusst	-10.1967
geräusch	-10.1967
schleunig	-10.1967
▁dürfte	-10.1967
▁geschwister	-10.1967
▁gewöhn	-10.1967
▁anonym	-10.1967
▁löwe	-10.1967
▁versteckt	-10.1967
▁unklar	-10.1968
▁bevorzugt	-10.1968
jäger	-10.1968
▁verlust	-10.1969
▁rückwärts	-10.1969
▁behörden	-10.1973
▁kriegsende	-10.1976
▁schlug	-10.1976
▁schwanz	-10.1978
fix	-10.1991
leute	-10.1994
▁trick	-10.2002
▁med	-10.2008
truppe	-10.2012
tragen	-10.2025
▁damen	-10.2025
glocke	-10.2027
▁doppelt	-10.204
röhre	-10.204
herausgeber	-10.2056
▁wirken	-10.206
partei	-10.2064
ulation	-10.2065
freund	-10.2069
▁live	-10.2093
▁heil	-10.2095
phon	-10.2095
▁histor	-10.2097
▁rö	-10.2103
▁täusch	-10.2104
▁dreißig	-10.2123
▁demokratische	-10.2124
▁dialekt	-10.2124
▁empfehle	-10.2124
▁gipfel	-10.2124
trunken	-10.2124
▁christoph	-10.2124
▁hieß	-10.2124
▁verlegt	-10.2124
früchte	-10.2124
▁lustig	-10.2124
▁enorm	-10.2125
▁pilot	-10.2125
▁schall	-10.2125
▁touristen	-10.2126
▁ordentlich	-10.2126
▁pfeif	-10.2138
▁erscheinen	-10.2142
▁rau	-10.215
▁leisten	-10.2152
▁putz	-10.2152
füge	-10.2157
▁nachweis	-10.216
tasche	-10.2161
ographie	-10.2162
▁traf	-10.2163
lanz	-10.2166
▁auszeichnung	-10.2173
▁bonn	-10.2183
koch	-10.2191
▁löst	-10.2203
▁wichtiger	-10.2205
maß	-10.2211
▁künstlerische	-10.2217
feuer	-10.2248
breite	-10.2259
kohl	-10.2263
kosten	-10.228
ō	-10.2282
▁gespannt	-10.2282
▁übernommen	-10.2282
▁eindeutig	-10.2282
▁erforderlich	-10.2282
▁negativ	-10.2282
▁bedroh	-10.2282
▁verpflichtet	-10.2282
▁schatten	-10.2283
▁abitur	-10.2283
▁erwarten	-10.2283
▁tunnel	-10.2284
▁lecker	-10.2284
▁keller	-10.2284
▁chemische	-10.2284
fressen	-10.2288
▁überzeugen	-10.229
▁grundlage	-10.2304
▁grand	-10.2309
▁indien	-10.2312
▁untersucht	-10.2312
▁weltkrieges	-10.2317
rmaßen	-10.2325
▁dahin	-10.2325
▁lob	-10.2331
schritt	-10.2335
ney	-10.236
▁nutzung	-10.2366
▁tom	-10.2367
▁jean	-10.2376
regierung	-10.2383
unternehmen	-10.2383
werfen	-10.2385
gemacht	-10.2392
litz	-10.2395
▁präg	-10.2403
zeichnen	-10.2418
▁höchst	-10.2436
▁endgültig	-10.2444
▁experiment	-10.2444
▁israel	-10.2444
▁olympische	-10.2444
▁zugänglich	-10.2444
schätzen	-10.2444
vermögen	-10.2444
▁richard	-10.2444
▁wüsste	-10.2444
▁david	-10.2444
▁arabisch	-10.2444
▁dialog	-10.2444
▁nütz	-10.2444
▁donau	-10.2445
▁unterscheiden	-10.2445
▁giftig	-10.2447
▁hierzu	-10.2448
▁sauber	-10.2449
▁münz	-10.2452
▁orgel	-10.2465
▁anstrengend	-10.2472
möglichkeiten	-10.2475
▁abschnitt	-10.2476
▁aufgebaut	-10.2491
▁walter	-10.2494
▁unfall	-10.251
▁kürz	-10.2514
▁gemeint	-10.2524
▁bord	-10.2528
weich	-10.253
lach	-10.2537
▁objekt	-10.2542
ju	-10.2543
▁wich	-10.2557
▁drin	-10.257
sammlung	-10.2576
aktiv	-10.2594
produzent	-10.2608
▁begonnen	-10.2608
▁professionelle	-10.2608
▁teufel	-10.2608
▁gewähr	-10.2608
▁drücken	-10.2608
▁irgendwelche	-10.2608
▁flagge	-10.2608
▁klima	-10.2608
▁anhänger	-10.2608
▁konzern	-10.2608
großvater	-10.2608
▁mehrmals	-10.2609
▁komposition	-10.2609
▁brut	-10.2609
achse	-10.2611
tempo	-10.2611
▁laufbahn	-10.2613
archiv	-10.2614
▁kollegen	-10.2615
streifen	-10.2615
▁mission	-10.2616
▁beträgt	-10.262
▁wellen	-10.2621
▁niederländisch	-10.2623
▁schweden	-10.2627
▁gemeindegebiet	-10.2632
▁wall	-10.2661
▁bislang	-10.2665
▁interpret	-10.2671
▁sender	-10.2677
gift	-10.2698
liegende	-10.2708
▁elektrische	-10.2712
▁kap	-10.272
graph	-10.2749
sozialismus	-10.2749
illa	-10.2771
würdig	-10.2774
initiative	-10.2774
komplex	-10.2774
▁konkurrenz	-10.2774
▁tübingen	-10.2774
▁verfolgt	-10.2774
▁verurteilt	-10.2774
▁gemüse	-10.2774
▁langfristig	-10.2774
▁scheiterte	-10.2774
schätzung	-10.2774
▁show	-10.2774
▁froh	-10.2774
▁jazz	-10.2775
▁verlieren	-10.2775
schlägt	-10.2775
begründer	-10.2776
▁atom	-10.2778
▁ernsthaft	-10.2779
weih	-10.2786
▁begleitet	-10.279
▁werbe	-10.2794
schirm	-10.2797
▁gefällt	-10.2798
schwäche	-10.2809
miete	-10.2813
▁bauwerk	-10.2815
uzi	-10.2829
▁kara	-10.2831
▁zeige	-10.2833
▁schuh	-10.2866
region	-10.2892
▁nehme	-10.2898
▁mehrheit	-10.2899
stunde	-10.2915
weisung	-10.2934
▁bemüh	-10.2944
▁düsseldorf	-10.2944
▁weibchen	-10.2944
▁gattung	-10.2944
▁geschehen	-10.2944
▁ändern	-10.2944
▁beherrsch	-10.2944
▁wurzel	-10.2944
▁bedient	-10.2944
▁gelernt	-10.2944
▁erlebt	-10.2944
▁vorsitzender	-10.2946
▁heiratete	-10.2946
▁kirsch	-10.2946
▁botschaft	-10.295
▁flori	-10.2956
▁amtszeit	-10.2957
▁realität	-10.2961
uppe	-10.2962
▁carl	-10.2963
▁taschen	-10.2975
rald	-10.2981
gestaltung	-10.2985
▁total	-10.2989
▁kopie	-10.301
▁sperr	-10.3011
wendung	-10.3039
▁stimm	-10.3053
wirkt	-10.3061
ella	-10.3062
lauch	-10.3063
blatt	-10.3066
friedhof	-10.3069
tätigkeit	-10.307
▁bock	-10.3073
▁senat	-10.3076
seil	-10.3082
▁gefärbt	-10.3116
▁religiöse	-10.3116
▁verteidigung	-10.3116
▁orientiert	-10.3116
▁philipp	-10.3116
assistent	-10.3116
▁rettungs	-10.3116
▁scheinbar	-10.3117
▁schatz	-10.3117
▁billig	-10.3117
▁jagd	-10.3117
▁wäsch	-10.3117
▁ideal	-10.3117
▁kommentar	-10.3118
▁aufmerksamkeit	-10.3118
▁erwies	-10.3122
▁kalk	-10.3122
übung	-10.3122
▁alarm	-10.3125
▁streng	-10.3129
▁kindheit	-10.3134
▁herstellung	-10.3138
▁geschie	-10.3148
nicht	-10.315
▁analyse	-10.3151
▁juden	-10.3151
fassade	-10.3157
▁übersetzung	-10.3178
gärten	-10.3181
zucht	-10.322
istik	-10.3229
entwicklung	-10.3246
▁sack	-10.3256
versammlung	-10.3262
hoff	-10.3281
▁beruflich	-10.3287
tief	-10.3288
frequenz	-10.3292
gegenwärtig	-10.3292
▁restaurant	-10.3292
▁empfang	-10.3292
▁erwähnt	-10.3292
▁verhindert	-10.3292
▁weihnacht	-10.3292
geschaltet	-10.3292
▁russland	-10.3292
▁sauerstoff	-10.3292
konferenz	-10.3292
▁ergibt	-10.3292
▁audio	-10.3292
▁trifft	-10.3292
▁krankenhaus	-10.3292
verleih	-10.3292
▁brandenburg	-10.3292
▁city	-10.3292
▁spanien	-10.3292
▁wiederholt	-10.3293
▁schlagzeug	-10.3295
schäden	-10.3304
▁unsicher	-10.3308
losigkeit	-10.3309
▁vierzig	-10.3313
▁führend	-10.3332
zustellen	-10.3332
▁auswahl	-10.3346
knoten	-10.3353
ladung	-10.336
steht	-10.338
ville	-10.3391
ji	-10.3401
▁gestalt	-10.3407
zeile	-10.341
institut	-10.3427
transport	-10.343
trainer	-10.343
▁blüte	-10.3433
pause	-10.3462
schädigt	-10.347
▁atmosphäre	-10.347
▁einkaufsliste	-10.347
▁geklärt	-10.347
▁großbritannien	-10.347
▁stattfinden	-10.347
gewässer	-10.347
▁experten	-10.347
▁preußische	-10.347
▁chinesische	-10.347
stütze	-10.3471
▁gefertigt	-10.3471
▁theologie	-10.3476
▁gefühle	-10.3477
▁verlag	-10.348
▁notfall	-10.3483
▁öffentlichkeit	-10.3487
▁vize	-10.3493
▁extra	-10.3501
mensch	-10.3505
route	-10.3506
▁münd	-10.3512
▁montag	-10.3516
▁mikro	-10.3517
▁bedenken	-10.3526
▁meeres	-10.3535
▁türkis	-10.354
▁schulter	-10.3546
▁rosen	-10.3554
balken	-10.3574
phase	-10.3594
nteils	-10.3598
vertrag	-10.3613
▁eb	-10.3619
▁benachbarte	-10.3652
▁alexander	-10.3652
▁bedeuten	-10.3653
▁party	-10.3653
▁toast	-10.3654
▁fungiert	-10.3654
▁wespe	-10.3654
oxid	-10.3655
▁probier	-10.3655
darsteller	-10.3655
▁erfunden	-10.3655
▁locker	-10.3656
▁amerikaner	-10.3656
▁saint	-10.3657
scheibe	-10.3658
▁schied	-10.3658
▁offiziell	-10.3661
borg	-10.3663
▁hauptort	-10.3667
▁faul	-10.3693
▁herein	-10.3696
▁lungen	-10.3699
fragt	-10.3711
▁kuh	-10.3718
▁mast	-10.3722
furt	-10.3723
▁att	-10.3724
nationalpark	-10.3748
▁disk	-10.3787
▁steil	-10.3789
▁brauche	-10.3807
▁cap	-10.3812
q	-10.3818
version	-10.383
▁etablier	-10.3837
▁beschränkt	-10.3837
▁gewonnen	-10.3837
▁erfordert	-10.3837
▁aufgelöst	-10.3837
▁tabelle	-10.3837
▁gieß	-10.3838
▁kühlschrank	-10.3838
▁schwedische	-10.3839
▁zuschauer	-10.384
▁unterteilt	-10.384
▁bisherige	-10.3842
wirt	-10.3844
▁rathaus	-10.3849
▁hügel	-10.385
▁albert	-10.3853
▁schneider	-10.3854
▁fair	-10.3861
▁funktionieren	-10.3863
stiel	-10.3863
wieso	-10.3865
▁isa	-10.3873
mitglieder	-10.3874
▁klang	-10.388
iffer	-10.3881
logisch	-10.3896
▁opa	-10.3914
rannt	-10.3914
▁griff	-10.3924
▁lehnte	-10.3945
salat	-10.3962
gekommen	-10.3965
▁luther	-10.3984
studium	-10.3993
fehler	-10.3994
album	-10.3994
ässe	-10.3999
begriff	-10.4011
omi	-10.4015
▁anerkannt	-10.4026
▁identität	-10.4026
▁komponiert	-10.4026
▁sämtliche	-10.4026
▁zerstören	-10.4026
▁erinnerung	-10.4026
▁islam	-10.4026
▁vorgesehen	-10.4026
▁autonom	-10.4026
▁steigt	-10.4037
▁angeles	-10.404
hüt	-10.4042
▁architektur	-10.4042
cia	-10.4044
▁nachhaltig	-10.4044
rechnet	-10.405
▁schuf	-10.4051
▁handwerk	-10.4053
▁villa	-10.4059
kabel	-10.4063
▁dreimal	-10.4077
▁nick	-10.4095
▁antike	-10.411
▁kiel	-10.4119
organ	-10.4127
zustimmen	-10.416
▁matt	-10.4168
fahrzeug	-10.4187
republik	-10.4189
ruhe	-10.4201
macher	-10.4202
bühne	-10.4214
▁augsburg	-10.4218
▁böhm	-10.4218
▁stirbt	-10.4218
▁tastatur	-10.4218
▁verfügbar	-10.4218
▁dringend	-10.4218
▁nahrung	-10.4218
mühle	-10.4219
▁deutschsprachig	-10.4219
▁strömung	-10.422
▁bremen	-10.4222
bemerkt	-10.4225
▁droge	-10.4227
▁dahinter	-10.4232
durchschnittlich	-10.4234
▁selbstständig	-10.4238
▁hoffe	-10.4245
▁franc	-10.4258
▁alkohol	-10.4274
gummi	-10.4278
▁river	-10.4279
▁moor	-10.4294
▁kritisch	-10.4297
soße	-10.4313
▁unterlag	-10.4314
▁empfi	-10.4321
▁rosa	-10.4355
hauen	-10.4363
▁north	-10.4369
firma	-10.439
▁menschliche	-10.4408
▁beobachtet	-10.4414
▁mathematik	-10.4414
▁olympia	-10.4414
▁südöstlich	-10.4414
▁vierzehn	-10.4414
▁batterie	-10.4414
▁umgangssprach	-10.4414
▁zusammengefasst	-10.4414
▁erwartet	-10.4414
lärm	-10.4414
▁präsentier	-10.4414
▁vermutet	-10.4414
debüt	-10.4414
▁aufnehmen	-10.4414
▁email	-10.4415
▁stürm	-10.4415
▁onkel	-10.4416
▁glatt	-10.4416
▁gelingt	-10.4416
▁stefan	-10.4418
▁geriet	-10.4418
▁aufpassen	-10.442
▁eingeführt	-10.442
▁königreich	-10.4427
▁leiche	-10.4447
▁sankt	-10.4452
gebunden	-10.4453
pflege	-10.4478
▁ego	-10.4482
rwerb	-10.449
▁marine	-10.4515
patri	-10.4524
▁kaufmann	-10.4545
▁saure	-10.455
bett	-10.4561
grä	-10.4569
modul	-10.4576
▁schwan	-10.4579
kopf	-10.4594
altar	-10.4606
zylinder	-10.4614
▁akzeptier	-10.4614
trocknet	-10.4614
▁schmecken	-10.4614
▁toilette	-10.4614
▁umgekehrt	-10.4614
▁wählt	-10.4614
gelehnt	-10.4614
▁örtliche	-10.4614
▁überliefert	-10.4614
▁göttingen	-10.4614
erlebnis	-10.4614
▁sekunden	-10.4614
▁schwierigkeiten	-10.4614
▁kommunist	-10.4615
▁jakob	-10.4615
▁prinz	-10.4616
▁schläf	-10.4616
▁auseinandersetz	-10.4619
angehörige	-10.462
▁runter	-10.462
▁golf	-10.4621
▁ausgeführt	-10.4622
geübt	-10.4623
▁wahrheit	-10.463
▁schief	-10.4635
▁jahreszeit	-10.4635
▁saß	-10.4637
elemente	-10.4639
▁bundestag	-10.464
vereinigung	-10.4645
▁spenden	-10.4651
▁dazwischen	-10.4655
▁hinweis	-10.4658
▁nordamerika	-10.4661
krise	-10.4671
rlei	-10.4691
kraut	-10.4732
problem	-10.4798
hafen	-10.4801
bibliothek	-10.4802
milch	-10.4803
flossen	-10.481
▁sende	-10.4812
▁akku	-10.4815
bilität	-10.4817
š	-10.4818
▁achtzehn	-10.4818
▁ansässig	-10.4818
▁aufklär	-10.4818
▁engagement	-10.4818
▁interessant	-10.4818
▁smartphone	-10.4818
▁oktober	-10.4818
▁umfangreiche	-10.4818
▁ehrenamtlich	-10.4818
▁nahrungsmittel	-10.4818
▁wagner	-10.4818
▁draußen	-10.4818
▁wachstum	-10.4818
▁erlitt	-10.4819
räder	-10.482
▁wohnzimmer	-10.4821
▁wolken	-10.4822
▁emil	-10.4823
▁spezialisiert	-10.4823
▁puste	-10.4823
▁persönlichkeit	-10.4824
▁zwangs	-10.4825
▁setze	-10.4835
haufen	-10.4835
▁zack	-10.484
▁hinsicht	-10.4846
▁staatliche	-10.4847
▁dortige	-10.486
▁dieselbe	-10.486
▁bohr	-10.4866
aufnahmen	-10.4881
▁russe	-10.4887
▁chip	-10.4888
▁erbaut	-10.4896
▁schwä	-10.49
▁finanziert	-10.4916
watt	-10.4943
materie	-10.4971
▁gesetzlich	-10.4976
grill	-10.4992
▁begleit	-10.5019
▁bringe	-10.5022
kommando	-10.5023
erkrankung	-10.5027
▁betreiben	-10.5027
▁geschaffen	-10.5027
▁reduziert	-10.5027
▁völker	-10.5027
▁würz	-10.5027
▁zeichnet	-10.5027
▁zuverlässig	-10.5027
container	-10.5027
▁literarische	-10.5027
▁risiko	-10.5027
▁rudolf	-10.5027
▁gustav	-10.5027
▁bayerische	-10.5027
▁unterscheidet	-10.5027
▁rätsel	-10.5027
▁benutzen	-10.5027
▁dresden	-10.5027
▁verletzt	-10.5027
▁geburtstag	-10.5027
quartier	-10.5027
▁eigenschaften	-10.5027
▁verbrenn	-10.5027
periode	-10.5028
▁dreißigjährige	-10.5028
▁bildschirm	-10.5028
dynam	-10.5028
▁ahnung	-10.5029
▁ferien	-10.5029
▁vieh	-10.503
▁vorlesen	-10.503
▁sinnvoll	-10.5031
▁bleib	-10.5035
winkel	-10.5038
▁geschossen	-10.5041
▁streu	-10.5043
▁schraub	-10.5044
kolleg	-10.5049
▁jura	-10.5058
▁bereitet	-10.5065
▁mittelalterlich	-10.5066
▁wohin	-10.5067
▁schönste	-10.5082
▁säu	-10.5087
tafel	-10.5092
strafe	-10.5135
▁ruine	-10.5152
blitz	-10.5215
bedingung	-10.5237
▁satelliten	-10.5239
▁verstärkt	-10.5239
▁geduld	-10.5239
▁zürich	-10.5239
▁fundament	-10.5239
▁offensichtlich	-10.5239
▁begraben	-10.5239
▁insekten	-10.5239
schaffung	-10.524
▁knall	-10.524
▁astronom	-10.524
▁nordosten	-10.524
▁schicksal	-10.524
▁gedreht	-10.524
▁analog	-10.524
▁ausreichend	-10.524
uddel	-10.524
kuppel	-10.5241
▁besichtig	-10.5242
zettel	-10.5242
trennung	-10.5243
▁island	-10.5244
▁rückkehr	-10.5244
▁klingen	-10.5248
▁elektronische	-10.5253
▁freundschaft	-10.5256
▁partie	-10.5257
▁momentan	-10.5262
▁ausrede	-10.5265
▁haushalt	-10.5271
dreieck	-10.5273
▁adler	-10.5274
gehört	-10.5278
bricht	-10.5279
▁fürchte	-10.5299
▁epi	-10.5345
läufe	-10.5349
▁satt	-10.5356
verhältnisse	-10.5362
bereitschaft	-10.5387
schieben	-10.5401
▁automat	-10.5409
krone	-10.5428
zusetzen	-10.5435
reinigung	-10.5441
▁rind	-10.5455
▁getötet	-10.5457
▁luxemburg	-10.5457
▁nürnberg	-10.5457
▁quadrat	-10.5457
▁verursacht	-10.5457
▁firmen	-10.5457
▁besorgt	-10.5457
▁justus	-10.5457
▁betriebssystem	-10.5457
▁überlegt	-10.5457
▁spür	-10.5458
▁freut	-10.5458
konkret	-10.5458
▁opposition	-10.5459
▁inhaltlich	-10.5461
▁lohnt	-10.5463
▁bedingungen	-10.5463
▁hauptrolle	-10.5464
faktor	-10.5465
▁speisen	-10.5466
tonne	-10.5466
▁aufhören	-10.5467
▁mineral	-10.5467
▁gleichmäßig	-10.5471
▁niederlande	-10.5475
▁human	-10.5477
▁hinterher	-10.5484
▁großteil	-10.5485
▁sorte	-10.5489
fenster	-10.5496
taste	-10.5499
schutzgebiet	-10.55
schmutz	-10.5507
fühl	-10.5535
▁schaf	-10.5538
▁bunt	-10.5556
ündig	-10.5575
konzentration	-10.5679
verschlüsselung	-10.5679
▁beliebig	-10.5679
▁fängt	-10.5679
▁fünfzehn	-10.5679
▁gedächtnis	-10.5679
▁global	-10.5679
▁maßgeblich	-10.5679
▁verantwortung	-10.5679
▁verliebt	-10.5679
verfolgung	-10.5679
verständlich	-10.5679
▁begründet	-10.5679
▁behindert	-10.5679
▁stieß	-10.5679
▁erfüllt	-10.5679
▁garantiert	-10.5679
▁behaart	-10.5679
▁nachmittag	-10.5679
▁gegenwart	-10.5679
funk	-10.568
▁priester	-10.568
▁gesichert	-10.568
▁gekocht	-10.568
▁voraussetzung	-10.5681
▁geistes	-10.5682
verbände	-10.5682
▁drehbuch	-10.5683
bräu	-10.5684
▁bühnen	-10.5685
▁erhoben	-10.5686
greift	-10.5689
▁fell	-10.5689
▁baustelle	-10.5695
▁etliche	-10.5697
jenige	-10.5702
▁hessen	-10.5705
boot	-10.5711
▁mix	-10.5716
▁mega	-10.5718
füllen	-10.5749
manager	-10.5793
schub	-10.5829
▁verläss	-10.5832
▁entsprechen	-10.5837
▁nordwest	-10.585
stange	-10.5858
gezeichnet	-10.5862
gedrückt	-10.5906
▁aussieht	-10.5906
▁kalifornien	-10.5906
kompetenz	-10.5906
▁populär	-10.5906
beschreibung	-10.5906
▁reagieren	-10.5906
▁angesiedelt	-10.5906
▁gewebe	-10.5906
kommission	-10.5907
▁neugier	-10.5907
▁erhältlich	-10.5907
▁verwechselt	-10.5907
▁installiert	-10.5907
▁aachen	-10.5908
▁dutzend	-10.5908
▁herrscher	-10.5909
▁bedeckt	-10.5909
▁kirchliche	-10.591
▁kanon	-10.591
plastik	-10.591
tomaten	-10.591
▁naturpark	-10.591
▁verkünd	-10.591
▁german	-10.5912
üchtig	-10.5912
▁stress	-10.5913
▁hirn	-10.5913
kämpft	-10.5913
hochschule	-10.5914
▁heirat	-10.5914
▁flüsse	-10.5914
▁alex	-10.5918
▁schweigen	-10.5921
▁reformation	-10.5922
▁mündet	-10.5924
▁luc	-10.593
▁papa	-10.5939
spor	-10.5941
korps	-10.5941
fünfzig	-10.5948
▁ereignisse	-10.5948
▁langjährig	-10.5981
▁kongress	-10.6006
beitrag	-10.6006
▁führ	-10.6011
gasse	-10.6029
▁profil	-10.6073
ografie	-10.609
flüge	-10.6123
▁nett	-10.6128
▁unterlieg	-10.6133
▁synchron	-10.6138
▁entschuldige	-10.6139
▁erklärung	-10.6139
▁exemplar	-10.6139
▁joachim	-10.6139
▁lokomotiv	-10.6139
▁records	-10.6139
▁synonym	-10.6139
▁verzweifelt	-10.6139
bezieht	-10.6139
gesperrt	-10.6139
▁atlant	-10.6139
▁australien	-10.6139
▁geändert	-10.6139
▁fliegt	-10.6139
▁öfter	-10.6139
▁behauptet	-10.6139
▁erwartung	-10.6139
▁hobby	-10.6139
▁tempel	-10.6139
▁award	-10.6139
▁stolz	-10.6139
▁überlebt	-10.6139
▁royal	-10.6139
▁pfanne	-10.6139
▁nannte	-10.614
▁schnitz	-10.614
▁trennt	-10.6141
klinik	-10.6141
▁unterwegs	-10.6142
▁bestritt	-10.6142
▁fraktion	-10.6142
böden	-10.6143
▁bezahlt	-10.6145
▁informations	-10.6146
hänge	-10.615
sekretär	-10.6151
▁einheimische	-10.6151
frau	-10.6152
▁fließend	-10.6154
▁tja	-10.616
bezeichnung	-10.617
▁litt	-10.6173
strom	-10.6175
▁nordwestlich	-10.6197
▁fruchtbar	-10.6236
▁gräb	-10.6257
▁qualifiziert	-10.6265
damm	-10.6267
shop	-10.6288
röte	-10.6299
frist	-10.6308
▁amerika	-10.6366
gängig	-10.6377
konservativ	-10.6377
perspektive	-10.6377
▁integriert	-10.6377
▁reparatur	-10.6377
▁september	-10.6377
▁vielfältig	-10.6377
intelligenz	-10.6377
▁befestigt	-10.6377
▁großmutter	-10.6377
▁kontinent	-10.6377
▁reserve	-10.6377
▁sächsisch	-10.6377
▁begeistert	-10.6377
▁diskutiert	-10.6377
▁virtu	-10.6377
▁weimar	-10.6377
▁vorhaben	-10.6377
substanz	-10.6377
▁vergiss	-10.6377
▁disco	-10.6378
▁fortschritt	-10.6379
▁teller	-10.6379
▁flüssigkeit	-10.638
▁faust	-10.638
▁römer	-10.6381
▁hype	-10.6382
kapitel	-10.6382
▁geistliche	-10.6382
▁salzburg	-10.6384
▁manuell	-10.6384
▁andererseits	-10.6385
▁wolfgang	-10.6385
modus	-10.6387
korrektur	-10.639
kunst	-10.6391
▁liefert	-10.6391
▁schützt	-10.6392
wanderung	-10.6394
▁acker	-10.6394
säge	-10.6394
organisation	-10.6396
flugzeug	-10.64
▁junior	-10.6401
ausbildung	-10.6402
geräumt	-10.641
herrschaft	-10.6415
ersdorf	-10.6472
antwortet	-10.6472
objektiv	-10.6473
▁vergleichbar	-10.6493
streit	-10.6501
brille	-10.6522
▁santa	-10.6548
▁lernt	-10.6573
analys	-10.6574
zentrale	-10.6576
▁thi	-10.6586
regiment	-10.6611
rgebnis	-10.6617
syndrom	-10.6621
▁abkürzung	-10.6621
▁beobachten	-10.6621
▁dreizehn	-10.6621
▁gmbh	-10.6621
▁publikation	-10.6621
▁nachwuchs	-10.6621
▁beschreibt	-10.6621
▁patienten	-10.6621
▁teppich	-10.6621
▁ernährung	-10.6621
▁kommunal	-10.6621
▁kredit	-10.6621
▁denkmalschutz	-10.6621
▁josef	-10.6621
▁moderator	-10.6621
▁pianist	-10.6621
▁magnetfeld	-10.6621
▁übernehmen	-10.6621
zügig	-10.6621
mittwoch	-10.6621
▁bequem	-10.6621
sponsor	-10.6621
▁wahrnehm	-10.6621
▁school	-10.6621
▁nebenwirkungen	-10.6621
seriöse	-10.6621
gefordert	-10.6621
▁geweiht	-10.6621
▁ausstattung	-10.6622
▁rundfunk	-10.6622
▁klischee	-10.6623
pflaster	-10.6623
▁graz	-10.6625
▁erlangte	-10.6626
▁vermittelt	-10.6627
▁scheiben	-10.6627
▁eigentum	-10.6629
▁hauptsitz	-10.6636
wettbewerb	-10.6645
prinzip	-10.6646
schwein	-10.6647
viertel	-10.6654
▁schaffe	-10.6668
besuch	-10.6689
aufgaben	-10.6729
▁lehn	-10.6735
▁falt	-10.6748
▁kurve	-10.6797
▁südamerika	-10.6838
▁biologi	-10.6847
molekül	-10.6871
é	-10.6871
▁aspekt	-10.6871
▁gefördert	-10.6871
▁hardware	-10.6871
▁phänomen	-10.6871
▁pseudonym	-10.6871
▁definiert	-10.6871
▁effizient	-10.6871
▁fliehen	-10.6871
▁günstig	-10.6871
▁mecklenburg	-10.6871
▁symptom	-10.6871
träglich	-10.6871
▁betätigt	-10.6871
▁einzigartige	-10.6871
▁dramatisch	-10.6871
▁breslau	-10.6871
▁sonntag	-10.6871
▁deutet	-10.6871
▁harmlos	-10.6871
▁papst	-10.6871
▁jemals	-10.6871
▁durfte	-10.6872
▁ehefrau	-10.6873
▁porträt	-10.6873
▁übt	-10.6874
▁kleinkind	-10.6875
▁verwaltungssitz	-10.6875
▁bezahlen	-10.6876
▁anzeigen	-10.688
▁volksschule	-10.688
mischung	-10.6885
▁grundstück	-10.6886
wolke	-10.6889
cto	-10.6934
pfad	-10.6972
quote	-10.6974
gewandt	-10.6981
kapsel	-10.6982
erfolg	-10.6989
▁ortsname	-10.6991
wärme	-10.7007
▁betrachte	-10.7041
▁eishockey	-10.7082
▁nachricht	-10.7105
▁zoo	-10.7106
▁juni	-10.7113
▁empfohlen	-10.7127
▁facebook	-10.7127
▁hinterließ	-10.7127
▁niedersachsen	-10.7127
▁stellvertretend	-10.7127
▁verlängerung	-10.7127
▁zeitgenössische	-10.7127
▁kritisiert	-10.7127
▁skulptur	-10.7127
mittlung	-10.7127
▁großeltern	-10.7127
▁schräg	-10.7127
▁karlsruhe	-10.7127
▁verstopf	-10.7127
▁versorgt	-10.7127
▁zauber	-10.7127
▁monument	-10.7127
▁stockwerk	-10.7127
▁grafschaft	-10.7128
▁grundriss	-10.7128
▁etappe	-10.7128
▁verdanken	-10.7129
pulver	-10.7129
▁kolonie	-10.7129
▁antrag	-10.7129
▁bernhard	-10.713
▁high	-10.713
geflogen	-10.713
▁adolf	-10.713
▁gelöst	-10.7131
▁arbeitgeber	-10.7133
▁erfinde	-10.7133
▁bundesstaat	-10.7134
▁kult	-10.7134
▁circ	-10.7134
▁eiserne	-10.7141
▁spinne	-10.7146
▁ausgangs	-10.7149
▁liest	-10.7149
▁beraten	-10.7156
galerie	-10.7188
▁enttäusch	-10.7196
patron	-10.7207
work	-10.7273
▁photo	-10.7332
▁psycho	-10.7356
▁basketball	-10.739
▁demokratie	-10.739
▁ergänzt	-10.739
▁eventuell	-10.739
▁herkömmliche	-10.739
▁inspiriert	-10.739
▁jürgen	-10.739
▁konstruiert	-10.739
▁lübeck	-10.739
▁moskau	-10.739
▁november	-10.739
▁tschechisch	-10.739
▁tödlich	-10.739
▁verdächtig	-10.739
▁zentimeter	-10.739
▁verlängert	-10.739
▁verschlüsselt	-10.739
▁adelsgeschlecht	-10.739
▁alfred	-10.739
▁ventil	-10.739
▁verblieb	-10.739
▁bäcker	-10.739
▁ticket	-10.739
▁terror	-10.7391
▁radikal	-10.7391
▁vorbereitung	-10.7391
märkte	-10.7391
▁kooperation	-10.7394
▁herausforderung	-10.7395
▁gelungen	-10.7395
▁selbständig	-10.7396
▁übel	-10.7396
▁piep	-10.7399
▁dienstag	-10.74
▁finanzierung	-10.7401
▁städtische	-10.7406
tronom	-10.7426
▁touristisch	-10.7427
abhängig	-10.7428
kiste	-10.7434
entsprechend	-10.7436
konzert	-10.7436
bringt	-10.7437
erfahrung	-10.7439
beute	-10.7441
fusion	-10.7442
▁philosoph	-10.7477
liebe	-10.7478
birne	-10.7518
charts	-10.7566
asiatische	-10.7588
oskop	-10.76
distan	-10.7609
▁feucht	-10.7627
▁verhäng	-10.7631
▁verbreitung	-10.7641
▁sympathi	-10.7661
ärztin	-10.7661
▁ausgewählt	-10.7661
▁browser	-10.7661
▁diplomat	-10.7661
▁intelligent	-10.7661
▁konzentriert	-10.7661
▁majestät	-10.7661
▁medikament	-10.7661
▁rechtsanwalt	-10.7661
▁spaziergang	-10.7661
▁territor	-10.7661
▁vergnüg	-10.7661
ifikation	-10.7661
▁abseits	-10.7661
▁drohne	-10.7661
▁linux	-10.7661
▁gelehrt	-10.7661
▁rühr	-10.7661
▁akzent	-10.7661
▁spannend	-10.7661
▁verstecken	-10.7661
▁anbieten	-10.7661
▁bestattet	-10.7661
▁rechner	-10.7661
▁goethe	-10.7661
▁aktivitäten	-10.7661
benutzung	-10.7661
▁nervös	-10.7661
▁hirsch	-10.7661
▁mittelmeer	-10.7661
▁schmidt	-10.7661
▁schleim	-10.7661
▁boiler	-10.7662
management	-10.7662
▁schiller	-10.7662
▁erwarb	-10.7662
▁behaupten	-10.7662
▁abriss	-10.7664
▁rüber	-10.7666
▁passwort	-10.7666
stedt	-10.7668
pfalz	-10.7668
▁janni	-10.7682
aufenthalt	-10.7691
sozialistische	-10.7698
könig	-10.7711
vertreter	-10.7713
saison	-10.7714
artikel	-10.7715
messer	-10.7716
töne	-10.772
ritten	-10.7732
▁irgend	-10.7743
tournee	-10.7752
busse	-10.7759
smitglied	-10.7767
▁antoni	-10.7771
sparen	-10.7772
charakteristisch	-10.7779
schießen	-10.7792
wanderweg	-10.7808
gräber	-10.7813
bremse	-10.7815
national	-10.782
zunehmen	-10.7925
dynastie	-10.7938
getränke	-10.7938
verkürz	-10.7938
▁beinhaltet	-10.7938
▁bemerkenswert	-10.7938
▁dimension	-10.7938
▁dänemark	-10.7938
▁eigentümer	-10.7938
▁elisabeth	-10.7938
▁gültig	-10.7938
▁konsequent	-10.7938
▁nirgend	-10.7938
▁potsdam	-10.7938
▁spaghetti	-10.7938
▁verstorben	-10.7938
kombination	-10.7938
▁spontan	-10.7938
▁world	-10.7938
▁väter	-10.7938
▁sparkasse	-10.7938
▁kanada	-10.7938
▁trainiert	-10.7938
▁vorbereitet	-10.7939
▁reihenfolge	-10.7939
▁betreut	-10.7939
▁aufgewachsen	-10.7939
lädt	-10.7939
▁chemie	-10.7939
▁konstant	-10.7939
▁annehmen	-10.7939
▁multi	-10.7939
▁klingel	-10.7939
geliefert	-10.7939
seminar	-10.7939
▁labor	-10.7939
▁nadel	-10.7939
badenwürttemberg	-10.794
trommel	-10.794
▁daniel	-10.794
▁knack	-10.794
▁redaktion	-10.794
▁umständen	-10.7941
▁aqua	-10.7942
▁sachgebiet	-10.7943
▁kleider	-10.7944
▁gedruckt	-10.7944
▁überschreite	-10.7945
▁james	-10.7952
flieger	-10.797
▁pirate	-10.7981
soeben	-10.799
▁könne	-10.8006
plattform	-10.8067
kontrolle	-10.809
▁eiche	-10.817
entwurf	-10.8199
▁aufmerksam	-10.8221
▁flüssig	-10.8221
schränkung	-10.8224
zählig	-10.8224
▁dörfer	-10.8224
▁fantasie	-10.8224
▁februar	-10.8224
▁infrastruktur	-10.8224
▁sowjetunion	-10.8224
▁tshirt	-10.8224
▁zwiebeln	-10.8224
▁google	-10.8224
▁gänz	-10.8224
▁heidelberg	-10.8224
▁herausragend	-10.8224
▁qualifikation	-10.8224
▁eduard	-10.8224
▁pizza	-10.8224
▁betrug	-10.8224
▁hoffnung	-10.8224
▁justiz	-10.8224
schwangerschaft	-10.8224
▁empfäng	-10.8224
▁konsequenzen	-10.8224
▁zitrone	-10.8224
▁linear	-10.8224
▁lorenz	-10.8224
▁verstarb	-10.8224
vertretung	-10.8225
▁vorsichtig	-10.8225
▁beleuchtet	-10.8225
hydro	-10.8225
▁heftig	-10.8225
▁klappt	-10.8225
▁humor	-10.8225
▁unsichtbar	-10.8226
▁würfel	-10.8226
▁gezielt	-10.8227
▁draht	-10.8228
päck	-10.8229
▁witzig	-10.823
▁erzeugt	-10.824
gewinde	-10.8293
krankheit	-10.8293
instrument	-10.8293
fünf	-10.8295
gesagt	-10.8295
▁elektrisch	-10.8332
oberseite	-10.8369
▁fließ	-10.8384
rahm	-10.8388
▁tasse	-10.844
erfreu	-10.8506
fänglich	-10.8518
sehenswürdigkeit	-10.8518
▁entstehung	-10.8518
fernbedienung	-10.8518
färbung	-10.8518
schädigung	-10.8518
▁akustisch	-10.8518
▁brasilien	-10.8518
▁ferdinand	-10.8518
▁gewürz	-10.8518
▁league	-10.8518
▁nikolaus	-10.8518
▁schokolade	-10.8518
▁südafrika	-10.8518
▁verbessert	-10.8518
▁vernünftig	-10.8518
▁konvention	-10.8518
▁niveau	-10.8518
▁scheitern	-10.8518
▁rechtschreib	-10.8518
▁erfordern	-10.8518
▁margaret	-10.8518
▁identisch	-10.8518
▁waschmaschine	-10.8518
▁buchstaben	-10.8518
▁advent	-10.8518
▁dauerhaft	-10.8518
▁fernsehserie	-10.8518
▁gegessen	-10.8518
▁verhaftet	-10.8519
▁peinlich	-10.8519
▁geheimnis	-10.8519
▁pilze	-10.8519
▁wackel	-10.8519
polizist	-10.8519
▁ruhig	-10.8519
▁geschnitten	-10.852
▁grafik	-10.852
knecht	-10.852
▁bewohnt	-10.8522
pumpe	-10.8524
mängel	-10.8526
▁vortrag	-10.8528
▁atem	-10.8532
▁vertrat	-10.8533
▁kürzeste	-10.8538
wurst	-10.8553
regnet	-10.8556
politische	-10.8597
wood	-10.8604
angriff	-10.8743
▁mächtig	-10.8746
zähler	-10.8751
wohngemeinschaft	-10.8772
ärchen	-10.8807
▁kicke	-10.8812
sprachig	-10.882
synthese	-10.8821
ömischkatholisch	-10.8821
▁amazon	-10.8821
▁automobil	-10.8821
▁mathematisch	-10.8821
▁orientierung	-10.8821
▁ungeklärt	-10.8821
▁ungewöhnlich	-10.8821
▁unterschrieb	-10.8821
▁zukünftig	-10.8821
▁eignet	-10.8821
▁schallplatten	-10.8821
▁anerkennen	-10.8821
▁reparier	-10.8821
▁belgien	-10.8821
▁pilger	-10.8821
▁teilnehmen	-10.8821
▁freuen	-10.8821
▁bewahre	-10.8821
▁verzehr	-10.8821
▁kakao	-10.8821
▁white	-10.8821
▁märz	-10.8822
▁nachfolgend	-10.8822
▁unterstützen	-10.8822
▁herbst	-10.8822
▁motorräder	-10.8823
▁angler	-10.8827
▁kriminal	-10.8828
verarbeitung	-10.8833
breitungsgebiet	-10.8844
▁studiert	-10.8869
amerikanische	-10.8875
dokumentation	-10.8899
bestimmt	-10.891
huhn	-10.8917
▁gefolg	-10.8928
trink	-10.893
▁teure	-10.8976
berater	-10.8987
diskret	-10.9011
geholt	-10.902
kragen	-10.9105
ensemble	-10.9134
rdrheinwestfalen	-10.9134
▁akademische	-10.9134
▁begegnung	-10.9134
▁entfernung	-10.9134
▁erledigt	-10.9134
▁erleichtert	-10.9134
▁fakultät	-10.9134
▁griechenland	-10.9134
▁kolonial	-10.9134
▁kontinuierlich	-10.9134
▁nordöstlich	-10.9134
▁vegetarier	-10.9134
▁verbleib	-10.9134
▁mozilla	-10.9134
▁abenteuer	-10.9134
▁permanent	-10.9134
▁stängel	-10.9134
▁getreide	-10.9134
▁kurzfristig	-10.9134
▁website	-10.9134
▁erweiterung	-10.9134
▁genügt	-10.9134
▁gelöscht	-10.9134
▁mahlzeit	-10.9134
matrix	-10.9134
wählen	-10.9134
▁liberal	-10.9134
▁schnabel	-10.9134
▁veranstaltet	-10.9134
einflüsse	-10.9134
▁zubereitet	-10.9134
▁letztendlich	-10.9134
▁germanistik	-10.9134
▁louis	-10.9134
▁generell	-10.9135
▁beurteil	-10.9139
treffer	-10.9139
▁erdbeer	-10.9141
▁asien	-10.9142
geschichtliche	-10.9148
▁schmied	-10.9149
wurz	-10.915
▁mobil	-10.9154
▁archäologische	-10.9156
▁schwinge	-10.9157
▁eingriff	-10.9158
zange	-10.916
▁stilistisch	-10.9177
kartoffeln	-10.9177
freude	-10.9231
güter	-10.9233
▁lüge	-10.9234
brunn	-10.9266
ausweis	-10.9392
▁kartoffel	-10.9412
ropf	-10.9421
▁röntgen	-10.9439
▁illustr	-10.9453
▁zigaretten	-10.9456
▁grammatik	-10.9456
▁attraktiv	-10.9456
▁bayreuth	-10.9456
▁beherbergt	-10.9456
▁bewerbung	-10.9456
▁bildhauer	-10.9456
▁erwünscht	-10.9456
▁gewidmet	-10.9456
▁ländliche	-10.9456
▁wikipedia	-10.9456
▁wünscht	-10.9456
▁zeigefinger	-10.9456
erhöhung	-10.9456
ometrische	-10.9456
▁verabschied	-10.9456
▁amateur	-10.9456
▁oldenburg	-10.9456
▁united	-10.9456
▁rohstoffe	-10.9456
▁appetit	-10.9456
▁kläger	-10.9456
▁börse	-10.9456
▁erwischt	-10.9456
▁unschuld	-10.9456
▁quasi	-10.9456
▁zeitweilig	-10.9456
▁ämter	-10.9456
▁adresse	-10.9456
▁major	-10.9457
▁uboote	-10.9457
▁violin	-10.9457
▁personalausweis	-10.9457
▁jetzige	-10.9457
▁grafikkarte	-10.9457
▁verbiete	-10.9458
▁verdammt	-10.9458
▁leiser	-10.9459
▁kälte	-10.9461
▁mieter	-10.9463
▁mutig	-10.9476
gebrannt	-10.9476
▁gemein	-10.951
lässlich	-10.9564
bedarf	-10.9564
künstler	-10.9565
vorlesung	-10.9569
▁geschützt	-10.9574
sammeln	-10.9601
schaltung	-10.9633
▁begab	-10.9654
▁muttersprach	-10.9667
▁anlass	-10.9721
schwimmer	-10.9723
bänder	-10.9788
▁aggressiv	-10.979
▁argentinien	-10.979
▁betreibt	-10.979
▁emotionale	-10.979
▁entworfen	-10.979
▁ergänzen	-10.979
▁evolution	-10.979
▁günther	-10.979
▁joghurt	-10.979
▁kathedrale	-10.979
▁kraftausdrücke	-10.979
▁offenkundig	-10.979
▁sebastian	-10.979
▁zwilling	-10.979
▁alphabet	-10.979
▁differenz	-10.979
▁verwaltet	-10.979
▁angeklagt	-10.979
horizont	-10.979
▁löcher	-10.979
▁review	-10.979
▁verbinden	-10.979
▁fulda	-10.979
▁kabinett	-10.979
▁überregional	-10.979
▁osmanische	-10.979
▁wiederaufbau	-10.979
▁ozean	-10.979
entwickler	-10.979
▁gewerkschaft	-10.979
▁umzugehen	-10.979
▁abgedeckt	-10.979
▁abgeschnitten	-10.979
▁folter	-10.979
▁windows	-10.979
▁tschüss	-10.979
▁smith	-10.979
▁dominiert	-10.979
▁erreichbar	-10.979
▁ungerecht	-10.979
▁moralisch	-10.979
▁servier	-10.979
▁samstag	-10.9791
▁systematisch	-10.9791
▁zitter	-10.9791
▁behälter	-10.9791
▁marmor	-10.9791
▁heinz	-10.9792
▁half	-10.9793
▁neutral	-10.9793
▁besiegt	-10.9794
▁falk	-10.9795
▁fahne	-10.9805
sterblich	-10.9807
▁träume	-10.9809
▁lackier	-10.9811
fuchs	-10.9813
▁neffe	-10.9815
eintrag	-10.9823
sozialisten	-10.9845
▁spitzname	-10.9856
gestrichen	-10.9876
korb	-10.9878
kritik	-10.9907
größte	-10.9911
gedacht	-10.9933
▁kippe	-10.9967
▁hexe	-10.9992
▁infanterie	-11.0119
württemberg	-11.0133
dimensional	-11.0135
explosion	-11.0135
rhythmus	-11.0135
▁donnerstag	-11.0135
▁entspannt	-11.0135
▁fütter	-11.0135
▁greifswald	-11.0135
▁herauszufinden	-11.0135
▁hollywood	-11.0135
▁individuell	-11.0135
▁relevant	-11.0135
▁sechzehn	-11.0135
▁verbesserung	-11.0135
▁verbindet	-11.0135
▁wohlhabend	-11.0135
▁aufsichtsrat	-11.0135
▁mexiko	-11.0135
▁portugal	-11.0135
westfälische	-11.0135
▁klemmt	-11.0135
▁beruht	-11.0135
▁metropol	-11.0135
▁brauchst	-11.0135
▁wiesbaden	-11.0135
▁gemischt	-11.0135
▁bananen	-11.0135
▁produktiv	-11.0135
▁klammern	-11.0135
▁töten	-11.0135
pfeffer	-11.0135
▁lastwagen	-11.0135
▁schwäbisch	-11.0135
▁tirol	-11.0135
▁verarbeitet	-11.0135
▁gehabt	-11.0135
▁tennis	-11.0135
▁folk	-11.0135
▁geschickt	-11.0135
gläser	-11.0135
filiale	-11.0135
▁bedienen	-11.0135
käufe	-11.0137
▁vereinbart	-11.0137
▁dasselbe	-11.0137
▁abstrakt	-11.0137
wirksam	-11.0146
▁verpasst	-11.0147
rutscht	-11.0148
nehmlich	-11.0152
▁eckige	-11.0163
feuchtigkeit	-11.0178
▁gebiss	-11.0201
trägt	-11.0241
sänger	-11.0267
▁stroh	-11.0368
▁ereignis	-11.0426
zitat	-11.0456
konstrukt	-11.0489
▁genoss	-11.0491
entzündung	-11.0492
gekühlt	-11.0492
zyklus	-11.0492
č	-11.0492
▁aluminium	-11.0492
▁argument	-11.0492
▁arrondissement	-11.0492
▁badewanne	-11.0492
▁befördert	-11.0492
▁betreuung	-11.0492
▁columbia	-11.0492
▁dezember	-11.0492
▁erkrankt	-11.0492
▁gestorben	-11.0492
▁ignorieren	-11.0492
▁publiziert	-11.0492
▁resultat	-11.0492
▁science	-11.0492
▁skript	-11.0492
▁sozusagen	-11.0492
▁staatsanwalt	-11.0492
▁webbrowser	-11.0492
▁ägyptische	-11.0492
effizienz	-11.0492
▁begrüß	-11.0492
▁beruhig	-11.0492
▁hockey	-11.0492
▁kombiniert	-11.0492
▁kommissar	-11.0492
▁schwör	-11.0492
▁unzufrieden	-11.0492
▁verzeih	-11.0492
kampagne	-11.0492
▁senkrecht	-11.0492
▁kastanie	-11.0492
▁lyrik	-11.0492
▁forstwirtschaft	-11.0492
▁herdplatte	-11.0492
▁erdgas	-11.0492
▁preußen	-11.0492
▁verringert	-11.0492
▁group	-11.0492
▁tendenz	-11.0492
▁vereinzelt	-11.0492
▁praktik	-11.0492
glühen	-11.0492
sphäre	-11.0492
▁jegliche	-11.0492
▁terrasse	-11.0492
stiefel	-11.0493
▁vermehrt	-11.0493
▁wieviel	-11.0494
▁unternahm	-11.0496
cross	-11.0496
▁löt	-11.0498
▁ingwer	-11.05
billy	-11.0514
▁schäf	-11.0515
unterhalt	-11.0518
haube	-11.052
▁nachlass	-11.0521
pedal	-11.0553
aufzeichnungen	-11.0592
▁klär	-11.0595
spezialisten	-11.0599
angebot	-11.0632
frucht	-11.0637
spiegel	-11.0637
interpretiert	-11.0718
nathan	-11.0744
▁gymnas	-11.0795
▁sekret	-11.0843
▁beobachtung	-11.086
katastrophe	-11.0862
▁beheimatet	-11.0862
▁chicago	-11.0862
▁eröffnen	-11.0862
▁geschafft	-11.0862
▁gewitter	-11.0862
▁gewusst	-11.0862
▁hubschrauber	-11.0862
▁löffel	-11.0862
▁münchner	-11.0862
▁umgewandelt	-11.0862
▁verteidiger	-11.0862
▁wähler	-11.0862
▁youtube	-11.0862
▁ägypten	-11.0862
chleswigholstein	-11.0862
▁akkorde	-11.0862
▁befestigung	-11.0862
▁elegant	-11.0862
▁erfindung	-11.0862
▁illegal	-11.0862
▁befindlich	-11.0862
▁vanille	-11.0862
▁bachelor	-11.0862
▁prominente	-11.0862
kompetent	-11.0862
▁fußgänger	-11.0862
▁minderheit	-11.0862
genügend	-11.0862
▁konstruktiv	-11.0862
▁existenz	-11.0862
▁unterhielt	-11.0862
▁schimmel	-11.0862
schmuck	-11.0862
▁blonde	-11.0862
▁moped	-11.0862
▁verschwunden	-11.0862
▁unheimlich	-11.0862
▁touch	-11.0862
▁formuliert	-11.0862
▁mädel	-11.0862
▁wofür	-11.0862
▁simson	-11.0862
▁zensur	-11.0862
gestimmt	-11.0862
▁angrenzende	-11.0862
▁franzosen	-11.0862
matratze	-11.0863
▁heroin	-11.0863
▁creme	-11.0863
bruck	-11.0863
schöpft	-11.0864
▁stachel	-11.0864
▁charlie	-11.0865
▁vorbehalt	-11.0867
▁vermiss	-11.087
▁einheitliche	-11.088
inhaber	-11.0889
▁späteste	-11.0905
▁exakt	-11.0941
platin	-11.0985
schwester	-11.1022
▁betreff	-11.1033
motiv	-11.1152
ł	-11.1247
schütteln	-11.1247
spektrum	-11.1247
sprünge	-11.1247
▁abgeschafft	-11.1247
▁ausgedehnte	-11.1247
▁befürchte	-11.1247
▁begeisterung	-11.1247
▁bielefeld	-11.1247
▁braunschweig	-11.1247
▁gemütlich	-11.1247
▁gespalten	-11.1247
▁korruption	-11.1247
▁kritisiere	-11.1247
▁oxford	-11.1247
▁scheinwerfer	-11.1247
▁ungeduldig	-11.1247
dämpfer	-11.1247
▁angreifer	-11.1247
▁aufwändig	-11.1247
▁kompromiss	-11.1247
▁konfession	-11.1247
▁mechanisch	-11.1247
▁skandinavi	-11.1247
▁unregelmäßig	-11.1247
▁feierabend	-11.1247
▁passagier	-11.1247
teleskop	-11.1247
▁mozart	-11.1247
▁nominiert	-11.1247
▁unternehmer	-11.1247
mechanik	-11.1247
▁sandwich	-11.1247
▁statistik	-11.1247
▁türkei	-11.1247
▁eklig	-11.1247
▁behielt	-11.1247
▁fleißig	-11.1247
jörn	-11.1247
▁installation	-11.1247
zeichner	-11.1247
▁klassik	-11.1247
▁trikot	-11.1247
▁bewaldet	-11.1247
▁hübsch	-11.1247
▁arnold	-11.1247
▁gemarkung	-11.1247
▁irritier	-11.1247
▁norwegische	-11.1247
▁deaktivier	-11.1247
▁dozent	-11.1247
▁weißwein	-11.1248
▁floh	-11.1248
turbine	-11.1248
klopft	-11.1248
▁earl	-11.1248
▁ungarn	-11.1248
koppel	-11.1248
vektor	-11.1248
zentren	-11.1248
▁tapete	-11.1248
▁längs	-11.1249
schleife	-11.125
plateau	-11.125
▁jacob	-11.1251
gerichtshof	-11.1251
futter	-11.1252
dünger	-11.1256
zwischenzeitlich	-11.1259
▁bahnsteig	-11.1267
▁nudel	-11.1302
kolben	-11.1401
albrecht	-11.1411
größe	-11.142
polizei	-11.1422
turnier	-11.1423
video	-11.1423
kritische	-11.1486
▁kindergärt	-11.1495
zwang	-11.1634
▁krimi	-11.1643
gerührt	-11.1647
orthodoxe	-11.1647
▁außergewöhnlich	-11.1647
▁bedeutsam	-11.1647
▁beerdigung	-11.1647
▁fälschlich	-11.1647
▁gewünscht	-11.1647
▁kennengelernt	-11.1647
▁klimawandel	-11.1647
▁kräuter	-11.1647
▁merkwürdig	-11.1647
▁mitbewohner	-11.1647
▁pazifik	-11.1647
▁produzieren	-11.1647
▁qualitativ	-11.1647
▁versöhn	-11.1647
▁zurückgekehrt	-11.1647
dürftig	-11.1647
▁kardinal	-11.1647
▁kümmert	-11.1647
▁prototyp	-11.1647
▁technologie	-11.1647
▁vergrößert	-11.1647
▁verschollen	-11.1647
gürtel	-11.1647
reflex	-11.1647
▁theodor	-11.1647
▁verrückt	-11.1647
▁neuseeland	-11.1647
▁abgebildet	-11.1647
▁kündigung	-11.1647
▁resonanz	-11.1647
▁seltsam	-11.1647
▁füße	-11.1647
▁kanzler	-11.1647
▁bräuchte	-11.1647
▁demonstra	-11.1647
express	-11.1647
▁droht	-11.1647
▁henrik	-11.1647
▁semester	-11.1647
prognose	-11.1647
▁dänische	-11.1647
▁krypt	-11.1647
▁variiert	-11.1647
▁entdeckung	-11.1647
▁helfer	-11.1647
▁clown	-11.1647
▁manfred	-11.1647
▁spanier	-11.1647
▁fokus	-11.1647
▁kannibal	-11.1647
▁überarbeitet	-11.1647
▁alexandr	-11.1647
klopfen	-11.1648
▁verkäufer	-11.1648
▁chlor	-11.1648
▁zwingen	-11.1648
▁verpflichtung	-11.1648
gemessen	-11.1651
▁hessische	-11.1652
▁entsprach	-11.1652
brigade	-11.1653
frachter	-11.1656
zügl	-11.1656
muschel	-11.1662
screen	-11.1669
▁kleist	-11.1675
schmerzen	-11.1682
pädagogik	-11.1709
affin	-11.1748
professor	-11.1839
▁drübe	-11.1891
beschäftigung	-11.2063
feedback	-11.2063
schränke	-11.2063
undsechzig	-11.2063
▁angestrebt	-11.2063
▁berücksichtigt	-11.2063
▁beschäftigen	-11.2063
▁diagnose	-11.2063
▁empirisch	-11.2063
▁gebräuchlich	-11.2063
▁gitarrist	-11.2063
▁jesuiten	-11.2063
▁kofferraum	-11.2063
▁mercedes	-11.2063
▁promoviert	-11.2063
▁präsentation	-11.2063
▁repertoire	-11.2063
▁schildkröte	-11.2063
▁schottland	-11.2063
▁thailand	-11.2063
▁vernunft	-11.2063
▁versprochen	-11.2063
▁vorübergehend	-11.2063
fränkisch	-11.2063
gebühren	-11.2063
vorpommern	-11.2063
▁ausleihe	-11.2063
▁erfährt	-11.2063
▁francisco	-11.2063
▁kurfürst	-11.2063
▁unterirdisch	-11.2063
▁zeremonie	-11.2063
geschliffen	-11.2063
▁hähnchen	-11.2063
▁skandal	-11.2063
▁unfair	-11.2063
▁barfuß	-11.2063
▁grüße	-11.2063
solvent	-11.2063
▁brown	-11.2063
▁wirkungsgrad	-11.2063
▁kanadische	-11.2063
▁frösche	-11.2063
▁irrtum	-11.2063
▁unterbrochen	-11.2063
membran	-11.2063
▁geklaut	-11.2063
▁beidseitig	-11.2064
pistole	-11.2064
schleuder	-11.2064
▁spieß	-11.2064
föhn	-11.2064
▁witwe	-11.2064
▁brumm	-11.2064
▁tugend	-11.2064
reaktor	-11.2064
▁zwerg	-11.2064
▁diktier	-11.2067
gelobt	-11.2069
trüg	-11.2083
wucher	-11.2216
medizin	-11.2273
bundesliga	-11.2273
konzept	-11.2273
historische	-11.2273
schwarz	-11.2274
▁hekti	-11.2284
sequenz	-11.2498
ı	-11.2498
▁wahnsinn	-11.2498
ohlenstoffdioxid	-11.2498
▁abstammung	-11.2498
▁autodidakt	-11.2498
▁bestätigen	-11.2498
▁chefredakteur	-11.2498
▁defensiv	-11.2498
▁dolmetscher	-11.2498
▁entlehnt	-11.2498
▁erforscht	-11.2498
▁europäer	-11.2498
▁football	-11.2498
▁gärtner	-11.2498
▁individuum	-11.2498
▁integration	-11.2498
▁koalition	-11.2498
▁kohlenhydrat	-11.2498
▁lächeln	-11.2498
▁mythologie	-11.2498
▁schädel	-11.2498
▁staatsexamen	-11.2498
▁update	-11.2498
▁venedig	-11.2498
▁victoria	-11.2498
gewölbe	-11.2498
▁ausdrücke	-11.2498
▁betrachtung	-11.2498
▁bewaffnet	-11.2498
▁mexikanisch	-11.2498
▁pinguin	-11.2498
▁trainieren	-11.2498
▁vietnam	-11.2498
▁westfalen	-11.2498
▁zeitgenosse	-11.2498
wägung	-11.2498
▁leopold	-11.2498
▁straßburg	-11.2498
▁stürzen	-11.2498
▁darauffolgende	-11.2498
▁oberschenkel	-11.2498
▁separat	-11.2498
ophyt	-11.2498
▁gewaschen	-11.2498
▁primär	-11.2498
▁samuel	-11.2498
gletscher	-11.2498
▁episode	-11.2498
gerasselt	-11.2498
▁frosch	-11.2499
▁angepasst	-11.2499
geschoben	-11.2499
▁flora	-11.2499
pfeiler	-11.2499
▁inszeniert	-11.2499
quallen	-11.2499
fizierung	-11.2499
strumpf	-11.2499
▁alliierte	-11.2499
▁beschwerde	-11.2501
▁morgendliche	-11.2502
drüse	-11.2524
binär	-11.2547
schnecke	-11.2571
▁skifahre	-11.2581
▁hinterfrag	-11.2727
kamera	-11.273
▁vorführ	-11.2741
▁charakterisier	-11.2915
▁archäologi	-11.292
denkmäler	-11.2953
diagnosti	-11.2953
kapazität	-11.2953
theoretiker	-11.2953
ungsgefahr	-11.2953
▁abgetrennt	-11.2953
▁amsterdam	-11.2953
▁ausgiebig	-11.2953
▁däumchen	-11.2953
▁erzbistum	-11.2953
▁garderobe	-11.2953
▁gescheitert	-11.2953
▁gestohlen	-11.2953
▁gläubig	-11.2953
▁höflich	-11.2953
▁katharina	-11.2953
▁koblenz	-11.2953
▁kommerziell	-11.2953
▁konzentrieren	-11.2953
▁korrigieren	-11.2953
▁madrid	-11.2953
▁nächstgelegene	-11.2953
▁plätzchen	-11.2953
▁sigmund	-11.2953
▁synagoge	-11.2953
▁südkorea	-11.2953
▁unternommen	-11.2953
▁verfasser	-11.2953
▁vernachlässigen	-11.2953
▁zerstörung	-11.2953
▁elternbeirat	-11.2953
▁oscar	-11.2953
▁valentin	-11.2953
▁phantom	-11.2953
empfunden	-11.2953
▁tötet	-11.2953
unterdrück	-11.2953
▁charlotte	-11.2953
wächter	-11.2953
▁magdeburg	-11.2953
▁brennessel	-11.2953
▁nicole	-11.2953
▁australische	-11.2953
wasseroberfläche	-11.2953
▁tränen	-11.2953
▁vermarktet	-11.2953
▁oskar	-11.2953
ritual	-11.2953
▁mikrowelle	-11.2953
ergüsse	-11.2953
abnehmer	-11.2953
▁sabine	-11.2953
▁drückt	-11.2953
scanner	-11.2954
▁morgenstund	-11.2954
briefmarken	-11.2955
plikat	-11.296
▁zünd	-11.2962
kabine	-11.3005
schwimmen	-11.3121
leuchte	-11.3147
gitarre	-11.3203
bäume	-11.3204
▁isländ	-11.3304
▁jüdi	-11.3365
▁differential	-11.3429
▁rendsburg	-11.3429
▁empör	-11.3429
flüchtlinge	-11.3429
weiterentwickelt	-11.3429
▁akkuschrauber	-11.3429
▁anspruchsvoll	-11.3429
▁apotheker	-11.3429
▁ausflugsziel	-11.3429
▁bedürfnis	-11.3429
▁boykott	-11.3429
▁bündnis	-11.3429
▁entspring	-11.3429
▁erschrocken	-11.3429
▁gebirgs	-11.3429
▁gespeichert	-11.3429
▁gleichgültig	-11.3429
▁hiphop	-11.3429
▁jerusalem	-11.3429
▁jörg	-11.3429
▁karosserie	-11.3429
▁knopf	-11.3429
▁konzipiert	-11.3429
▁leichtathletik	-11.3429
▁lügner	-11.3429
▁napoleon	-11.3429
▁rucksack	-11.3429
▁schröder	-11.3429
▁thüringen	-11.3429
▁verlustbehaftet	-11.3429
▁vermähl	-11.3429
▁volumen	-11.3429
▁werbespot	-11.3429
▁whatsappgruppe	-11.3429
donaudampfschiff	-11.3429
getroffen	-11.3429
pünktlich	-11.3429
saxophon	-11.3429
▁freimaurer	-11.3429
▁physikalische	-11.3429
▁volksarmee	-11.3429
▁übersetzer	-11.3429
▁erstaunlich	-11.3429
▁gestört	-11.3429
▁köstlich	-11.3429
▁methodi	-11.3429
▁nicola	-11.3429
gehängt	-11.3429
▁eberhard	-11.3429
▁fiktive	-11.3429
krümel	-11.3429
▁apostel	-11.3429
gewohnheiten	-11.3429
▁torhüter	-11.3429
▁monitor	-11.3429
▁arrangiert	-11.3429
▁ungesund	-11.3429
▁satire	-11.3429
unterkunft	-11.3429
krabbelt	-11.3429
▁gebüsch	-11.3429
▁befreundet	-11.3429
▁kündigte	-11.3429
bezüglich	-11.3429
rauszuholen	-11.3429
marathon	-11.3429
▁linguisti	-11.3429
schwankungen	-11.3429
▁epoche	-11.343
▁kulisse	-11.343
finsternis	-11.3431
▁pflück	-11.3431
gestreift	-11.3432
einsatzkommando	-11.3442
bewusstsein	-11.3448
direktion	-11.3514
genauigkeit	-11.3604
höpf	-11.3676
kräftig	-11.3703
jugend	-11.3704
europäische	-11.3841
▁beeinträchtig	-11.3929
▁panorama	-11.3929
▁verwechsl	-11.3929
observatorium	-11.3929
undvierzig	-11.3929
ř	-11.3929
▁abkühlen	-11.3929
▁anfällig	-11.3929
▁angekündigt	-11.3929
▁ausführlich	-11.3929
▁außerordentlich	-11.3929
▁begegnet	-11.3929
▁breisgau	-11.3929
▁dissertation	-11.3929
▁ermordet	-11.3929
▁fraktur	-11.3929
▁gefällig	-11.3929
▁genehmigt	-11.3929
▁indirekt	-11.3929
▁kontrahent	-11.3929
▁kontrovers	-11.3929
▁matthias	-11.3929
▁mittagspause	-11.3929
▁orientalische	-11.3929
▁premierminister	-11.3929
▁propaganda	-11.3929
▁renommierte	-11.3929
▁subventionier	-11.3929
▁thronfolger	-11.3929
▁ukraine	-11.3929
▁variable	-11.3929
▁vernachlässigt	-11.3929
▁zerstörer	-11.3929
kanzlei	-11.3929
▁asphalt	-11.3929
▁bestraft	-11.3929
▁bewährung	-11.3929
▁erledigen	-11.3929
▁grammatikalisch	-11.3929
▁kollektiv	-11.3929
▁krokodil	-11.3929
▁sachverhalt	-11.3929
▁spekulation	-11.3929
▁spionage	-11.3929
▁edward	-11.3929
▁sklaven	-11.3929
▁texas	-11.3929
▁woanders	-11.3929
▁istanbul	-11.3929
▁variieren	-11.3929
▁gregor	-11.3929
▁empor	-11.3929
▁künste	-11.3929
▁allianz	-11.3929
▁schottische	-11.3929
autoritäre	-11.3929
▁papagei	-11.3929
▁präzise	-11.3929
murmel	-11.3929
▁entnehme	-11.3929
monarchie	-11.393
gefroren	-11.393
▁hülse	-11.3931
▁vegane	-11.3931
olivia	-11.3931
späne	-11.3933
marmelade	-11.3933
rumpelt	-11.3933
offensive	-11.3935
▁aufflieg	-11.3938
überwacht	-11.3946
göttin	-11.3948
supermarkt	-11.4021
lutherische	-11.4058
farbig	-11.4098
▁vollzieh	-11.4102
begabung	-11.4141
zwanzig	-11.4227
software	-11.423
literatur	-11.423
genossenschaft	-11.4448
erscheinungsbild	-11.4455
zugehörigkeit	-11.4455
ā	-11.4455
▁afghanistan	-11.4455
▁beatrix	-11.4455
▁begegnen	-11.4455
▁beschuldig	-11.4455
▁betäubung	-11.4455
▁dokumentarfilm	-11.4455
▁einkaufswagen	-11.4455
▁elektrifizier	-11.4455
▁entnommen	-11.4455
▁explizit	-11.4455
▁fortpflanzung	-11.4455
▁fräulein	-11.4455
▁fröhlich	-11.4455
▁genehmigung	-11.4455
▁gerüchte	-11.4455
▁gesammelt	-11.4455
▁heilbronn	-11.4455
▁hervorragende	-11.4455
▁identifizier	-11.4455
▁katholiken	-11.4455
▁kaufmännische	-11.4455
▁ladungsträger	-11.4455
▁laptop	-11.4455
▁leichnam	-11.4455
▁protagonist	-11.4455
▁registriert	-11.4455
▁rekonstruier	-11.4455
▁resultierende	-11.4455
▁schizophren	-11.4455
ã	-11.5599
ô	-11.5599
â	-11.5599
ø	-11.6224
ū	-11.6224
ú	-11.6891
ý	-11.6891
ș	-11.7605
ë	-11.8374
ş	-11.8374
ʿ	-11.9207
ī	-11.9207
ě	-12.2228
à	-12.3478
î	-12.4906
å	-12.6573
æ	-12.8573
ə	-12.8573
ă	-13.1073
ò	-13.1073
đ	-13.1073
ů	-13.4406
ň	-13.9406
û	-13.9406
œ	-13.9406
ť	-13.9406
ḫ	-14.9395
ź	-14.9396
ğ	-14.9397
ï	-14.9398
ń	-14.9399
ê	-14.94
ț	-14.9401
ą	-14.9402
ś	-14.9403
ñ	-14.9404
ž	-14.9405
ď	-14.9406
ð	-14.9406
ç	-14.9406
õ	-14.9406
ù	-14.9406
þ	-14.9406
ć	-14.9406
ė	-14.9406
ħ	-14.9406
ņ	-14.9406
ő	-14.9406
ż	-14.9406
μ	-14.9406
ṣ	-14.9406
ắ	-14.9406
ế	-14.9406
カ	-14.9406
临	-14.9406
孙	-14.9406
尣	-14.9406
道	-14.9406
